▁
,
.
▁the
e
a
o
i
▁di
▁in
▁of
s
▁to
'
▁and
▁che
▁[
MALE
]
▁la
▁that
▁per
▁is
▁il
▁de
▁un
▁for
▁I
ed
▁del
▁on
l
è
della
▁be
-
▁non
zione
ing
▁this
re
▁le
▁Commission
ly
▁we
▁una
▁it
▁not
▁are
FE
à
▁have
▁con
which
▁as
▁si
▁al
▁(
▁dell
▁with
▁all
▁Mr
▁by
to
▁European
▁p
▁—
y
delle
▁The
▁ri
▁at
▁has
▁will
▁se
d
:
▁sono
are
azione
▁ha
▁alla
▁da
▁In
questo
t
▁nel
iù
es
)
amente
▁President
▁come
Presidente
▁an
▁do
▁c
ta
▁gli
ò
ità
would
or
Parliament
▁should
▁can
zioni
▁Parlament
▁from
anche
’
te
?
ere
▁our
▁must
;
▁rela
▁also
▁been
▁ad
▁pa
▁propos
▁ma
▁europea
gli
▁but
▁europe
▁We
essere
ché
▁La
▁ci
er
iamo
no
ato
biamo
ti
▁or
▁was
▁d
▁cui
▁so
questa
▁ai
▁its
▁Council
▁It
▁A
Consigli
amento
▁Community
▁su
nella
▁report
▁more
▁there
▁sia
▁question
▁Union
esi
▁sa
▁Member
za
▁av
their
▁politica
▁you
▁Stati
n
▁gi
▁like
rebbe
▁economic
▁States
▁Sign
quanto
us
▁Il
▁no
these
able
rà
▁one
▁alle
▁Europe
r
▁re
▁dal
very
▁poss
▁qual
▁membr
mente
▁who
▁what
▁other
tutto
▁This
▁countries
loro
hanno
tanto
Union
onore
▁decision
▁lo
▁Per
▁tutti
sulla
▁only
vole
▁important
▁my
▁S
▁if
▁time
fatto
▁about
proposal
▁parte
▁quell
▁me
▁people
▁policy
▁am
▁out
▁Comun
▁pre
▁up
).
ario
▁consider
▁sul
▁modo
ati
stato
▁far
▁E
▁tra
because
▁second
svilupp
▁dalla
▁dov
▁ris
▁es
▁dis
▁nell
▁commission
▁L
▁new
u
▁need
▁v
▁now
▁Non
▁co
cio
azioni
▁parti
com
▁ab
he
▁pro
molto
▁tale
▁support
▁lavoro
▁nei
▁suo
▁such
orrei
▁some
­
ono
▁say
▁any
ment
herefore
▁mi
▁into
▁particular
▁make
/
▁deve
those
between
uto
▁pu
▁bilan
political
▁take
mento
▁qui
when
se
oluzione
▁vot
al
▁nuov
being
evole
▁work
▁due
▁diret
▁mis
▁under
▁C
▁sua
▁necessari
▁noi
▁were
ata
▁solo
stess
▁made
ranno
oltre
ano
▁than
ese
senza
▁them
▁sotto
▁discussion
menti
▁dall
▁EU
ancora
emenda
▁mio
ritti
altri
▁nostr
▁Committee
▁situa
ation
▁clear
comunitari
ittadin
▁think
ttore
ì
Europa
▁first
hi
▁way
▁fact
rispett
▁great
go
▁grupp
altro
ci
▁budget
▁direct
▁social
▁point
▁par
▁regard
evoli
in
tori
mercato
si
▁rapport
where
amend
▁market
▁cos
▁measure
▁colleg
ary
▁problema
nostro
▁prima
▁concern
▁right
believe
▁questi
▁part
rights
certain
tiva
▁many
agreement
against
▁development
▁over
▁dire
colare
▁just
livell
ive
▁fare
▁two
ate
▁anni
en
ndo
▁had
nostra
▁state
debate
ure
▁miglior
▁specific
▁want
▁contro
▁even
▁ho
▁present
▁punto
biettiv
ments
▁importante
▁years
▁uno
▁That
occup
▁Commiss
le
does
▁resolution
ttavia
not
oggi
▁pot
▁–
ando
▁vi
che
corso
▁national
ire
▁problemi
ies
▁m
▁vote
▁situation
app
could
signor
taken
▁adopt
ndi
▁molt
stata
▁att
▁here
▁fa
co
ore
guarda
sicurezza
▁future
▁sull
▁agricol
▁good
▁well
▁en
▁dob
▁propri
uti
▁same
▁said
▁hope
▁chiar
▁quali
▁view
▁know
▁possible
possibile
▁country
▁base
chiara
▁caso
tratta
enza
▁w
▁effet
▁popol
▁most
▁chi
rebbero
democratic
nelle
▁fine
▁Se
▁tu
▁relat
ritto
▁As
agli
▁tempo
endo
▁richi
favore
maggior
▁ne
already
▁too
ignora
▁he
▁stati
li
▁sociale
▁may
quando
▁V
▁own
▁order
c
▁possibilit
▁his
▁controll
▁put
posizione
U
▁comune
cuni
▁problem
▁reason
▁much
ito
▁today
▁coopera
siamo
ogni
▁problems
within
▁Ci
▁presentat
▁poi
▁Le
progett
▁still
▁ve
▁sopra
izzazione
▁region
ttori
adott
▁year
▁through
▁There
▁give
▁materia
▁È
▁b
▁sistema
▁agree
▁sempre
▁human
▁House
▁inter
men
▁common
▁Europa
eur
zi
▁lavora
siano
empio
▁fra
▁use
▁interest
▁sol
▁aspett
queste
▁course
▁programma
▁world
▁see
sione
▁public
unque
▁accord
▁case
▁finanzi
▁internazional
▁opinion
cooperation
▁numero
▁sui
▁sector
▁Si
sulle
▁rappresent
financial
▁both
▁issue
▁momento
▁But
▁parla
anza
▁how
▁tali
▁Group
▁system
▁then
▁cost
▁ora
▁number
▁last
ness
▁matter
europei
▁approv
citizens
▁If
▁set
▁De
altre
▁condizion
▁volta
without
impegn
shall
▁luo
▁before
vono
ce
▁general
▁action
▁No
ers
!
▁respect
isce
ity
▁since
▁ra
▁tratt
▁T
▁regol
means
ale
necessary
However
costitu
atori
▁principi
▁col
imento
ally
ri
tropp
▁«
▁level
istituzion
governo
▁garanti
▁Presiden
remo
given
why
▁final
tutte
▁place
servizi
ensure
hether
detto
▁international
▁position
abbia
principle
▁im
▁legal
▁area
▁wish
aria
▁Treat
p
▁aid
▁ben
▁nome
▁conto
▁limit
▁consum
▁Mi
prodotti
favour
▁Unit
),
tenzione
nazionali
▁bis
▁example
▁dai
▁sta
▁end
▁difficult
▁information
Discussion
▁grande
▁your
▁ver
▁For
employment
trasport
▁programme
ngono
▁inizi
olo
▁On
▁futuro
▁global
▁cosa
gentle
▁United
tengo
remmo
▁"
S
▁Debat
▁long
▁desider
▁trova
cy
▁government
▁meno
Madam
ze
▁consegu
ricerca
ring
▁progress
accord
▁sosten
accetta
▁help
conclusion
however
▁necessit
on
▁ask
politiche
▁procedure
▁quest
▁continue
viene
areas
further
▁trade
▁cred
▁processo
▁accept
▁again
▁mondo
▁discuss
roduzione
▁subject
less
▁primo
▁govern
sufficient
arsi
affront
▁energy
▁dopo
▁Sono
▁persone
▁power
anti
▁sost
▁Ma
▁monet
▁What
de
Stato
half
▁protection
esso
▁era
going
▁group
▁current
▁decide
▁van
▁B
manda
attività
▁Members
▁result
▁achieve
concerned
ali
▁mia
▁milion
batti
▁after
▁O
self
zia
▁1
▁basis
▁confront
ul
riconosc
▁merito
▁done
Questo
▁process
congrat
▁ag
corre
quadro
ladies
▁recent
objective
▁ch
▁giust
▁whole
glio
m
▁finanzia
▁lei
amenti
▁women
▁ru
▁ricord
▁ob
ora
▁man
ative
tato
uridic
▁force
DE
enti
▁presidente
wards
sposta
dello
avere
▁Con
degu
taking
gricultural
dalle
▁euro
▁prote
▁negozi
▁impres
tion
nuovo
▁Quest
ante
▁go
▁industry
▁negli
ltà
▁priorit
few
▁law
▁dove
▁societ
▁effective
grado
▁form
ne
abile
▁buon
▁different
▁provide
increase
▁total
▁high
▁tre
ous
▁causa
maggiore
▁million
committee
▁via
forza
▁terms
risor
fatti
poter
▁Minister
▁State
cia
A
▁call
▁tal
ativa
▁products
▁success
nuclear
▁na
▁down
▁three
▁generale
ita
▁security
▁face
▁back
▁po
osserva
▁resources
▁compi
▁pesca
vece
making
ur
▁Trat
iuto
ar
▁express
▁transport
▁regions
▁donne
▁research
rischi
▁Tu
▁regola
ca
▁convin
lo
▁Com
▁small
▁welcome
▁regional
▁D
▁presente
be
▁vista
▁did
▁role
▁esse
▁thank
▁account
▁crisi
Assemble
▁get
▁responsabilit
egno
▁senso
▁relativ
▁find
procedura
▁000
▁esprim
otten
▁forward
▁pur
▁circ
▁real
quite
▁vita
▁partecipa
▁better
giorno
▁Come
reach
▁large
▁né
ECU
▁politici
certo
rules
▁meeting
become
▁allo
▁valuta
▁segui
▁dato
fully
articolo
▁next
▁mention
deputat
▁libert
▁natural
▁pubblic
▁fond
▁Nel
▁P
▁Second
ting
▁something
erà
really
initiative
ism
▁bring
▁health
▁verso
serious
▁So
anzi
PPE
norme
assicura
cune
▁tax
ogno
least
embra
▁institutions
▁conditions
needs
▁legislativ
ni
ismo
ente
▁vog
▁working
▁fronte
▁essa
ziale
sì
▁free
▁dare
ordine
liamo
▁potreb
FR
▁approach
gislation
aggiunge
▁collega
esta
mostra
▁Un
▁consumer
ambit
▁used
▁rapid
crisis
essential
▁show
▁internal
▁utilizz
▁data
various
▁exist
piccol
▁qualit
remain
umani
▁services
third
during
ia
policies
tiamo
ther
zo
▁production
▁previs
aggio
importance
▁fino
▁ter
anno
▁Ri
▁2
▁lung
iscono
applicazion
▁At
another
▁va
sieme
▁every
almente
▁occasion
coming
▁F
line
tare
▁implement
chiede
fferma
▁sociali
regulation
uardo
eserci
nazionale
framework
▁change
▁competen
▁permett
guarantee
▁spes
ambiente
zio
ura
▁presiden
riform
▁draft
affin
▁seem
volte
▁individual
▁less
▁autorit
▁issues
▁sub
▁civil
▁politico
razi
▁happen
ra
They
▁reform
getto
▁Dob
termine
soddisfa
▁inde
▁attention
▁raf
tivo
tualmente
▁motivo
▁campo
negotiation
▁realt
membro
enze
▁oc
▁And
ations
▁draw
prender
while
▁Government
▁pubblica
▁legisla
▁Al
▁porta
▁ir
responsibility
▁sfor
as
▁provision
▁care
freedom
▁pien
▁Lisbo
▁struttura
ve
▁main
▁Article
estrem
authorities
especially
▁regime
▁crea
▁hand
▁aspect
va
tamente
bile
based
▁positive
fondi
tiene
▁forse
▁environment
essi
ade
▁contra
▁interno
mentre
▁anno
▁testo
▁short
▁capital
▁rig
▁major
altra
tener
▁aver
▁points
opportunity
each
▁close
economico
di
▁things
▁food
▁yet
giudi
▁R
ance
▁racco
▁produ
▁democra
always
ettere
▁mondial
▁proposit
▁cre
once
workers
▁Affair
▁off
EN
rsi
▁fundamental
These
▁precis
ted
lotta
cento
est
▁others
parliament
▁deal
▁text
stante
voted
▁together
difficil
▁look
ezza
▁allow
▁que
▁conclu
emente
▁combat
▁por
▁funzion
vero
▁improve
▁concor
▁industrial
volto
quelle
▁mai
▁risk
COM
unico
▁majorit
stanzi
▁Fond
▁programmi
▁table
na
safety
haps
▁esa
▁N
including
▁words
formazioni
ttura
frontier
▁import
propria
▁tras
▁hear
▁grandi
▁contrari
▁te
mi
▁document
▁defini
punti
▁intend
▁money
having
▁U
▁fo
fosse
▁kind
▁period
vedere
▁terrorism
ng
▁request
▁Russia
economia
▁cerca
▁piano
▁demand
▁special
▁favor
▁feel
an
▁G
▁Nell
CEE
coltura
▁motion
the
▁Ho
▁represent
tto
▁occup
▁super
▁questions
▁strong
renza
sso
might
▁pace
tutta
▁control
▁full
voto
simply
ori
▁diffic
▁Di
▁strength
▁extreme
▁prezz
▁importan
pesso
termini
un
▁relations
ro
▁critic
sultati
▁este
gruppi
▁volont
periodo
z
scritto
imenti
▁Ab
avanti
▁cresc
funds
ferimento
▁competition
at
called
accordi
▁consenti
▁produce
▁attra
▁line
environmental
ability
▁statement
ari
involved
programmes
appropriate
democracy
formazione
among
▁urgent
rius
urante
aware
▁strategia
dere
b
tive
▁idea
▁try
la
▁trans
struzione
▁prevent
▁discut
▁dati
▁open
▁Fund
mo
▁follow
▁contest
industria
▁him
ferenza
risponde
▁colle
cause
rre
pericol
venga
▁met
uomo
guard
verso
▁create
▁step
missione
▁entra
▁scop
preved
amount
economy
anze
g
▁available
▁answer
▁interessa
following
▁peace
▁divers
iedere
raggi
regione
▁single
informazione
agione
▁bene
▁sede
often
▁decis
▁paragraf
▁promo
either
increas
▁prepar
▁color
interessi
▁groups
▁ago
amentale
▁10
ndamentali
▁ecce
EEC
▁balance
giovan
ssimo
▁affect
enorm
efforts
▁life
▁viol
▁ricev
▁solution
▁men
▁reduce
▁tr
equal
▁field
large
eva
▁vari
relative
▁receive
▁To
responsible
▁dagli
ultimi
siasi
▁stabilit
▁include
f
▁her
implementation
contenu
border
▁best
linear
▁complete
▁understand
tela
▁traffic
ssima
▁Co
▁salut
▁moment
venire
NL
tuale
▁effect
▁diversi
▁continu
agri
▁aumenta
matters
▁Gli
unione
mend
H
▁Cred
▁tema
UE
▁serie
pressione
▁contribui
▁vero
▁concret
▁members
▁Anch
▁li
▁tipo
▁never
establish
▁lead
obblig
society
atore
os
▁aument
▁thing
ustizia
▁consent
▁pover
▁ambiental
▁strada
giunt
▁posti
▁First
bba
▁costi
▁Noi
▁manten
▁mean
duzione
▁access
▁promu
▁practice
▁fac
zzi
affer
ino
passo
▁ministri
x
articolar
tà
é
▁significa
esiste
▁rifi
▁evident
▁farmer
do
ogna
▁companies
joint
▁Final
evitar
▁casi
▁energetic
▁3
stanza
▁vuo
▁sure
▁elabora
pito
▁proced
▁gestion
▁formula
Office
▁principal
ling
▁little
enough
nothing
rappresenta
▁rid
▁realiz
▁commerci
▁seno
strategy
▁quel
▁months
▁vital
▁pe
regionale
▁modifica
▁scientific
cun
▁argo
viso
themselves
▁forma
▁context
apply
▁cap
▁grave
man
poco
ED
parole
▁spirit
gono
developing
actually
growth
▁Court
▁M
▁efficac
▁parlamentar
th
▁let
bili
▁af
entire
ised
▁young
▁Let
▁propon
▁ten
ful
criteri
▁5
▁fiscal
▁proper
▁cultural
▁past
▁partit
▁personal
▁children
bour
▁rural
▁essen
quot
▁sicur
spite
reports
▁projects
▁opportun
ty
ssolut
▁quality
longer
chia
▁jobs
▁fall
▁hono
▁pay
▁f
▁verifica
▁All
Doc
ula
▁presentar
▁augu
duta
età
▁mesi
▁carica
breve
▁Da
▁disposi
▁mie
▁tenta
▁min
▁tecnologi
▁standards
scel
esame
Turkey
acceptable
▁element
caratter
lthough
riten
rendere
▁plan
visto
▁speak
▁local
▁My
ite
ification
▁compromis
diverse
ely
▁interroga
▁conosc
▁cose
isation
▁continua
ovvi
▁cambia
▁criminal
▁Question
annual
▁comprom
▁manier
h
▁day
▁die
tempt
▁15
▁ta
st
▁doub
▁passat
appear
zionale
representative
mato
▁socialist
ibilità
▁media
▁Israel
▁du
▁Corte
▁though
▁20
entro
eranno
significant
▁true
reject
▁zone
technical
▁anti
cases
rò
▁above
▁mind
rie
interno
vigor
urre
▁Tur
▁population
▁mal
▁prospe
eremo
▁assum
over
overe
▁fish
▁agenda
doc
▁results
▁start
ultato
▁needed
▁pratic
▁fu
▁Africa
trasparen
affar
ultimo
▁aus
▁activities
oso
sion
▁proprie
▁legge
▁protect
ieri
portare
▁gas
▁With
otto
threat
▁dialog
sposizione
ion
▁applica
▁prices
▁education
ACP
▁central
▁capacit
▁Euro
states
illegal
▁act
lack
Convention
▁You
provided
▁normativ
▁insist
nfortunately
▁French
▁water
▁esi
maintain
upon
▁collabora
efficient
▁frances
guerra
intende
▁minor
agues
um
risol
competitive
out
▁linea
▁coin
alogue
▁price
▁ex
importan
selves
▁1985
▁benefit
ably
▁completa
▁four
▁stan
investiment
▁intervent
▁rifl
▁interesse
ggiare
▁found
until
strumenti
▁sus
strumento
gioni
▁please
inizio
ry
ise
▁consequ
▁discrimina
paragraph
documento
encourage
▁Infin
▁writing
is
▁add
▁firm
▁1984
cuna
▁Regn
▁Ha
▁Ver
▁play
▁ap
▁op
▁og
tivamente
▁cruci
izzare
▁genere
▁liberal
▁potr
energia
▁training
▁Ireland
tivi
▁opera
▁progressi
▁cor
▁parola
▁indica
Socialist
ngano
asked
gere
esclu
▁posto
▁address
sider
▁aim
▁considera
volta
olvere
▁fight
▁inform
▁tenu
▁12
▁constat
»
rci
British
▁ripet
centrale
▁fair
▁thu
▁conform
».
▁Social
piut
eri
ences
▁war
genza
▁pari
▁Og
▁div
tosto
vuto
▁seen
▁experience
lezioni
▁consulta
▁30
▁fatti
id
▁Chi
▁basa
▁multi
foreign
▁Una
▁valor
positivo
ostituzione
▁dispos
▁Vi
trice
▁coordina
▁quasi
▁Conven
priority
ttiva
▁conflict
ov
avoid
mercat
ities
ought
structural
stead
▁refer
▁committe
▁revision
ste
▁previous
▁letter
▁expen
makes
▁4
efficaci
▁funziona
veral
▁svo
▁liber
▁comuni
▁purpose
▁personale
cambio
▁soll
terzi
▁resp
promote
nire
▁introduc
▁solidari
▁pure
ulate
▁management
basic
adequa
▁meet
contributo
▁considerat
▁develop
ie
▁segu
indispens
▁est
▁Van
ute
▁involv
arci
zare
▁Budget
Irlanda
ditur
▁fase
▁fin
▁grant
▁union
motivi
ottim
▁1986
▁determinat
▁Our
▁penal
concerne
nulla
▁cert
▁move
▁systems
▁oppos
pere
altres
age
grazie
ated
▁debat
stitu
immediate
regulations
▁Lo
oggio
parties
▁lu
agriculture
▁scar
vi
▁rais
▁innan
▁standard
▁France
▁confli
▁excellent
repeat
▁sud
advantage
reduction
▁impact
▁soon
▁assist
rin
▁vale
contribution
▁comple
▁parlamentari
▁et
▁nature
markets
faccia
Iraq
▁almen
accad
▁addition
▁sistemi
provv
▁share
▁comment
amo
▁project
▁dan
▁One
▁person
▁held
▁confer
▁lot
▁professional
tory
▁continuar
attual
erano
along
ccession
▁appen
▁san
▁application
omunicazione
ica
▁hard
▁candidat
creased
ssistenza
▁American
fidu
arried
▁stage
▁solidarit
▁libera
▁safe
tempo
military
▁corret
▁el
rganizzazioni
▁private
concrete
institutional
▁avanza
▁opp
▁poor
▁EUR
▁stress
changes
for
regret
razio
▁figure
tti
▁apert
▁ved
▁stand
▁prova
When
▁circo
▁resto
▁integration
▁More
ries
▁forte
▁supplement
▁1988
▁business
▁Direct
▁25
reddit
▁sense
▁live
fesa
mely
▁lavor
▁competent
rought
creation
▁South
ties
▁investment
content
▁Economic
unica
▁conce
oglio
▁1981
▁offer
▁note
▁farm
care
ement
▁road
▁competitiv
iesto
desso
ado
▁times
▁suggest
ommitment
▁2000
▁May
▁relation
fondo
▁espress
▁appro
v
▁dav
▁comporta
elections
▁interven
▁alternative
▁Party
procedures
▁December
bio
▁prepara
volge
▁osta
equilibri
▁response
▁giorn
speech
▁occupa
wise
▁German
approva
chi
▁sempli
canza
"
meccani
fishing
▁Pro
▁movement
▁gran
epubblica
▁profit
▁Francia
▁Tale
▁miliard
▁1989
▁pressure
▁confin
▁comunit
settimana
ici
referred
▁amb
▁1990
teggi
▁Ministr
Greece
iston
▁1987
▁talk
▁avvi
▁H
▁sort
▁term
▁five
aggi
▁oil
▁task
▁Sper
ificazione
▁subsidi
▁ce
volg
genze
carry
bambini
practical
evo
▁quote
▁origin
alimentare
fine
▁Pur
cosa
▁exten
▁required
▁turn
▁Oc
ccio
cembre
mani
ggi
mitato
▁ever
▁keep
▁value
▁rate
▁las
fence
▁impos
term
▁6
▁dimentic
▁organizza
una
▁gravi
”
▁vol
ence
▁factor
alizzazione
ten
pure
accol
▁Gre
presented
este
▁America
rifer
ile
quattro
▁date
climate
iti
▁7
taggio
▁definitiv
▁left
Rights
▁espresso
▁1983
cemente
▁propor
▁correct
Soviet
▁commerciali
▁job
▁Germany
▁culture
iche
▁cambi
ttive
funding
▁strategic
ibile
Mediterranean
▁difference
▁condi
▁conven
▁appropri
olazione
▁everyone
▁luce
actions
inizi
by
ormai
▁purs
ittime
abili
▁list
▁quick
▁wide
▁ac
▁expect
▁quantit
▁vicin
ways
lmost
▁opportunit
improvement
unity
▁fi
▁formal
▁importa
▁sent
▁normal
waste
colo
ically
▁partner
mphasi
giving
criteria
isco
▁violen
ces
according
▁emission
▁esport
▁nono
▁Kingdom
ero
▁East
▁treat
▁spieg
ant
▁Es
ent
▁outside
lgere
took
▁1992
ening
▁week
▁technology
▁torna
rivol
▁speaker
▁dub
▁terrorist
▁crime
riman
▁modern
▁join
tuare
ously
pratica
▁tell
▁she
▁rule
▁air
▁plen
▁demonstrat
edly
▁Subject
▁reading
opinion
▁Republic
▁gioc
▁compres
aboli
▁key
applied
▁status
nello
▁return
▁varie
▁orienta
▁everything
▁effects
▁provoca
evol
▁producer
income
▁dimension
effort
▁word
▁Germania
▁Spain
▁attend
tore
approved
contribute
▁service
abilità
▁medium
enable
▁differenz
▁valori
▁mo
inque
mandato
▁nor
▁natura
▁profond
acco
▁light
▁commercial
▁dann
▁Vice
attamento
allar
genuine
GR
▁infra
ascolt
penso
established
▁direction
▁11
Greek
▁fini
ezzo
▁Che
▁manca
ciare
▁connection
▁valid
ultima
▁finance
gliere
developed
dipenden
using
bsolutely
▁potential
minare
leave
cano
tomorrow
▁broad
▁stret
▁introdu
▁1982
posto
spazio
vo
ilateral
▁salva
▁&
osa
▁pag
▁prezzo
▁away
▁applicat
▁Pa
accia
▁destinat
▁Inter
▁commit
ssero
▁inser
▁else
ven
▁mere
▁tecnic
▁parlament
▁substanc
▁contribu
▁100
▁13
▁percent
▁payment
▁requirements
more
▁probabil
▁impost
pagna
▁begin
▁Do
ttuali
▁den
analisi
sistenti
Rules
▁precisa
▁Nord
▁views
▁der
ingly
▁bio
▁armi
takes
attu
cuno
▁cultura
▁interveni
pubblici
▁animali
organizzazione
▁prodotto
duty
▁II
ossia
▁18
▁included
▁trov
▁substanti
▁side
▁14
porre
▁stock
talking
mare
▁fles
▁Now
sostenibil
▁rest
▁circumstan
▁mira
▁integr
eries
overty
ives
▁recogn
stability
omini
▁limitat
▁comprend
▁energia
▁passe
▁victim
▁preso
violence
▁six
▁living
additional
▁50
fissa
▁dice
▁invit
▁pare
▁Is
Third
▁Central
▁self
▁h
orale
▁post
▁caus
▁tass
dotta
levels
▁vor
danna
▁decisi
▁minorit
▁presenta
▁elett
▁Unite
▁attribu
anzia
▁session
Kosovo
edì
▁compl
zza
▁continent
assistance
elemento
opportunities
obligation
unto
vano
attitude
▁creat
estern
ico
▁fan
▁relativi
mplice
propose
impat
esecu
▁events
ugno
aziend
▁active
pression
▁reality
speaking
].
▁impedi
▁June
uta
erne
▁reflect
▁studi
teriore
innova
▁stabili
▁nes
suno
▁old
recente
im
idea
▁error
tempi
▁em
▁Romania
values
▁death
allowed
explain
▁World
presso
▁»
industriale
▁principale
tica
▁People
interesse
nti
eventual
▁consa
▁mechanism
coli
aggiun
league
justice
known
▁pac
iscrimination
▁urge
rile
App
transparency
▁proven
negotiat
▁reference
▁commiss
▁conti
naio
interrog
▁Ora
▁manage
January
▁export
▁code
▁acc
▁Sa
utare
▁prove
▁petrol
giunge
▁yesterday
rog
▁An
tions
requisit
ghi
▁He
ic
▁How
▁member
▁morning
▁intention
icamente
▁read
ribadi
successful
▁concilia
tezza
▁sanitari
▁16
landes
unità
consistent
commerciale
▁treatment
I
▁ignor
▁lato
tecnologia
▁Pens
▁Of
PT
▁rico
ivi
Democratic
ned
ibili
▁operation
▁community
▁delega
▁intra
olamento
▁8
▁USA
▁study
▁abba
▁privat
▁external
▁Par
▁9
evano
▁China
▁negativ
urther
ista
▁anch
fficio
▁concentra
viously
legation
infrastructure
▁17
Foreign
steps
▁solu
ostruzione
▁around
▁half
▁arriva
▁dar
instruments
capacity
▁firma
behind
Irish
▁precedente
riferi
▁federal
beginning
spero
E
realistic
▁deriva
▁intervention
▁rive
▁militar
▁grec
▁billion
▁forest
disaster
ubmitted
storia
▁Porto
ncora
▁significativ
▁seguir
goes
▁contrast
▁costru
▁wors
▁wrong
▁transfer
▁bloc
▁claus
▁original
mentazione
▁rien
▁function
egli
Brussels
▁Development
▁drug
▁danger
2
mette
▁fail
k
▁resolve
weak
brief
ssaggio
reply
assimo
alimentari
▁rise
▁incident
land
▁locali
maggio
ministro
deficit
supported
gallo
▁eviden
table
myself
▁median
ek
potenzial
▁extend
▁conference
▁accus
Bruxelles
▁responsabil
▁interventi
aling
denza
tu
Regulation
▁contain
▁communication
margin
sustainable
dotto
▁confirm
▁facilita
sitting
▁Portugal
▁stop
▁consens
▁gen
▁W
▁days
posizion
▁Italian
▁similar
oordination
esperienza
tain
▁ecc
stituir
▁focus
▁determin
▁incentiv
▁PRES
▁family
sse
▁monitor
negative
▁vice
▁prefer
▁UN
territorio
ufficial
tura
▁fear
rico
luni
▁instrument
voluzione
ngoli
O
immig
▁sugger
culturale
correr
▁certa
quin
esistenza
▁vigil
▁remin
▁Su
▁rende
approfondi
▁credit
IDENT
▁ca
▁und
▁pronuncia
▁Ne
tended
▁1980
across
▁defend
uring
▁presta
declaration
▁ferro
▁Qual
▁mese
ized
scheme
ened
▁Bar
▁auto
supply
▁solutions
limited
▁Green
titolo
remark
▁bear
▁Italy
amministrativ
▁inte
▁superior
isti
▁March
says
ist
▁partners
3
impie
assessment
riously
esse
wanted
red
bilateral
reciproc
▁product
voce
occupati
▁exchange
▁arrangement
▁review
▁improv
▁arrest
cambi
teriori
▁prend
▁distor
PL
▁carbon
▁paid
▁financi
▁mano
▁radio
▁home
tained
Procedure
▁Po
calls
chiamo
▁specie
▁influence
▁party
▁Belgi
▁individu
ization
▁serve
▁esper
02
▁unit
▁precedent
▁resta
L
costo
ccellente
Quando
zionali
▁Ecc
▁elimina
▁independent
▁modell
lunga
▁accesso
recogniz
»,
▁thanks
▁Internet
prison
▁thought
integra
earli
overall
uso
tere
tano
tariff
▁ragi
F
time
sivamente
tati
▁press
astro
item
dangerous
ole
rire
naro
▁Conference
consultation
▁th
created
alone
int
aimed
▁verbal
▁Re
guidelines
▁history
▁relevant
anything
▁International
▁US
Since
damage
introduction
tice
mande
▁package
▁zona
thousand
▁pensa
libero
▁tram
▁Sud
ian
fellow
Justice
July
▁conduct
▁staff
▁restrict
▁sur
option
▁Reg
▁centre
col
▁Cina
scope
▁protocol
▁monitoring
...
▁vera
▁#
early
▁responsabili
assai
▁diminu
strict
▁minimum
government
▁appell
authority
▁sanit
▁manifesta
▁devo
▁delibera
simile
BC
den
mann
metter
tture
▁land
▁appea
arlo
administrative
▁reale
▁senti
▁concept
▁exception
introduce
▁mari
▁NATO
tro
▁studio
▁Act
raise
lizia
vare
gamento
▁Gi
zionat
higher
▁pension
chetto
da
▁medie
▁sin
▁ban
ning
▁coordinat
▁40
Nations
▁setting
ciato
▁sport
atura
▁radical
bre
credibil
▁cross
establishment
ga
▁climati
participation
▁choice
▁consolida
▁von
Agriculture
Dopo
▁Assembly
beyond
confidence
▁invita
▁author
summit
▁render
▁chance
izzato
ariato
▁UE
remember
calling
bodies
ular
corsi
▁Dal
ù
occasion
▁prosper
dimensione
ietà
88)
▁armon
zie
failure
▁alt
▁limite
ture
October
▁var
▁laid
▁modific
concession
▁sincer
accoglie
▁Amsterdam
▁car
isulta
▁concentrat
▁presto
spagnol
▁scor
ebben
▁merit
”.
ricch
Constitution
▁test
▁exact
con
pointed
▁struttur
stesse
▁ambiti
▁November
lines
▁succe
▁Austria
▁office
oglia
▁knowledge
diri
▁universal
esto
dici
cher
▁sei
▁activity
Spanish
edono
▁Environment
ES
▁fund
era
▁utile
thinking
▁occidental
▁merci
▁futur
essione
▁official
DA
exercise
▁September
nim
▁solid
rigor
▁27
ma
▁successiv
▁refug
▁statistic
lor
▁later
▁pensar
▁low
▁1999
isca
▁custom
pproval
▁Can
▁modificat
insegna
asking
alt
ssimi
rata
tembre
affair
messe
marzo
accesso
▁name
taggi
ose
liono
spetto
▁nep
umento
etti
▁led
▁impor
pending
volut
▁morte
C
▁organisations
assegna
endors
instance
▁determina
▁bad
▁vive
▁model
sburg
related
benefits
▁acquis
▁Parla
▁voi
▁language
▁type
▁territorial
signed
▁spin
▁challenge
▁provid
▁Rule
88
affid
▁là
▁campaign
▁ambi
▁“
▁counter
▁legit
stru
acqua
▁21
▁Quant
tardi
▁Roma
rlo
bban
▁critica
vostr
rates
ppone
apertura
neighbour
▁oriental
led
equality
▁After
elected
tanze
▁referendum
sidi
▁Democrat
ollution
▁disciplina
businesses
▁K
▁gain
ratifica
serve
meno
▁‘
▁comments
▁plans
▁Bank
▁autor
▁pront
▁lieto
ler
ced
▁Policy
willing
▁ful
▁integrat
ola
shows
me
▁check
novembre
ttivo
sized
▁Monet
nte
▁cut
▁elevat
zamento
withdraw
influenza
euro
▁giov
▁gar
issimo
serva
renew
national
Eastern
▁24
▁hold
▁Report
torno
assume
cision
britanni
▁accident
▁sé
▁occur
uffici
ene
▁eliminat
▁constitut
iva
▁red
sanction
vamo
▁milk
▁conten
miglia
▁%
R
▁consult
▁proteg
▁finale
▁conced
vis
vicina
▁speed
▁suff
amp
contatt
roso
responsibilities
▁clar
▁lives
immigration
MEP
▁appli
▁temi
laws
entare
arla
pic
per
ampia
▁civili
lascia
▁turismo
▁body
recognition
▁incontr
▁tack
▁registra
▁event
aims
▁rip
ittà
▁abus
▁harmoniz
▁Lei
lontan
cies
amministrazione
ampio
looking
Although
op
told
▁near
▁implica
▁rete
weapon
▁mer
cratic
Il
▁reti
▁corre
▁favori
isparmi
offre
Schengen
intervent
▁television
▁listen
▁mobilit
dogan
lors
▁sola
▁Carta
▁sov
▁cu
▁certi
sino
getting
▁prime
▁burd
▁methods
oggia
▁contract
▁compensa
▁emerge
▁mission
▁primari
▁persegui
▁minister
▁mess
Agreement
▁require
▁er
useful
▁simple
▁highlight
ampi
oni
▁North
impossible
citi
▁19
up
▁Regional
degree
▁dispon
▁passi
▁documents
▁permanent
efficiency
▁Primo
ones
avven
▁Never
▁ge
presidente
understanding
▁sole
dipende
▁disponibili
▁Rela
perfett
ify
▁prese
pro
▁method
it
huge
▁cer
▁oral
critical
▁respond
▁sper
spetta
mattin
▁transit
▁sfi
vido
▁Natural
▁od
▁definition
ciamo
▁participat
manner
probabl
▁contrat
▁Lom
Why
▁Today
emissions
▁constant
▁administration
tes
operazion
mostrar
▁impression
▁piace
anità
▁conta
▁centro
▁Questi
▁ambiente
ende
attiva
requires
et
perci
▁Chamber
▁mostra
▁analysis
▁parts
▁cover
▁Bulgaria
rne
▁moviment
GATT
sometimes
growing
▁gra
▁appar
▁Sir
▁court
riamo
▁preven
▁sensi
▁message
▁uso
minimo
osi
▁invest
▁institution
▁equ
America
preliminar
opportunit
ndono
acque
▁legitima
charge
ge
vato
fatta
Palestinian
Summit
enterprises
▁loss
▁modal
▁scandal
weeks
visione
nyone
▁forme
closed
former
▁sensibil
capito
fender
▁Research
lianza
citizen
der
▁500
venut
accio
▁gia
▁Poland
▁para
arms
▁concess
roceedings
trasform
▁learn
▁conserva
▁bi
erei
integrated
crescent
ory
▁Luxembourg
icoli
intera
▁vertic
teriorment
opposition
opera
sfrut
The
▁reduc
▁mare
▁comme
separate
fuel
▁Essa
▁complex
▁ripar
▁motor
▁Some
▁sop
▁company
▁Last
▁initial
▁Liberal
dettagli
genetic
▁Bis
worth
challenges
bligatori
▁prospect
▁police
▁UK
▁ideas
govern
detta
genzia
frutt
▁building
1
▁donna
▁stim
▁charge
forget
▁achiev
▁Banc
▁presa
rmi
leading
▁gener
prire
partnership
ley
utting
▁palestin
▁Inde
submit
speranza
▁restri
colp
▁ground
votes
spread
▁conosce
▁impon
▁comin
▁collo
currency
fondament
minat
▁2007
▁consiste
cendo
▁equilibr
▁fraud
▁informa
▁ship
▁carne
avano
▁nem
▁britan
▁depend
vant
▁rein
cente
bito
izzati
▁metodo
▁acce
▁cere
ir
ustifica
lingue
claim
▁April
positiva
▁record
rimenti
▁Parti
risul
▁frequent
ziari
umanitar
frontal
smo
▁New
economic
▁proportion
▁porto
ster
▁wine
▁perspective
▁beneficiar
▁sap
▁chia
ugoslavi
▁came
scienza
▁concert
LDR
vieto
▁Iran
▁extra
▁Bureau
ver
▁lui
▁spend
gato
added
technological
ating
tratti
val
apparent
▁mu
▁inferior
stampa
settiman
▁run
lingua
ans
Turkish
▁Legal
evidence
cu
sources
long
doppi
contains
urgente
emplifica
▁rispo
▁dispar
courage
annunci
▁harmonis
vious
secure
February
guida
animals
▁Polonia
toller
▁pun
▁costa
lower
technologies
▁Health
▁Mar
▁design
changed
▁bas
tra
ivamente
Charter
Tutti
▁uniform
▁contact
▁trust
▁animal
▁qu
chè
▁Molt
▁metodi
▁destinati
positivi
▁General
▁noto
restriction
▁sind
▁persona
tensione
percussion
▁latte
▁sca
transition
▁innovation
▁By
▁vivo
▁structure
▁declar
sson
plus
am
▁domestic
mon
▁interna
▁ultima
▁Be
▁Ad
tradizion
mediterrane
failed
▁West
▁PE
President
▁gesti
▁presi
impiant
designed
covered
▁raz
▁profession
▁figura
▁gente
presa
▁Dov
one
ending
mburgo
▁travel
utilizz
▁happy
▁association
session
▁disa
consumption
fida
dover
expected
▁lost
▁consigli
▁22
▁justifi
izzata
▁pri
▁capi
corsa
imit
eign
erente
ha
▁economi
▁complementar
elve
▁Lord
organizations
▁catastr
▁remove
IT
mistake
Minutes
exports
▁EC
pe
▁division
▁rim
existence
cito
▁statut
aggiung
tanti
▁humanitar
▁Even
▁sem
▁font
eeking
▁feb
essen
▁reso
forth
▁qualifica
▁sentir
ffering
brai
▁idee
colari
min
▁visit
▁stabil
esatt
▁link
▁rich
▁rail
pochi
▁vinc
▁pian
▁1998
▁passar
tourism
appreciate
▁autonom
▁amplia
▁bureau
▁200
armi
▁Quin
viato
argo
▁speciale
▁leader
mandate
teful
▁Human
desire
▁sce
ella
▁31
controls
lause
▁consist
▁massi
▁presup
smi
▁big
cire
▁tonn
lenco
▁expression
sive
▁CE
ors
▁possibili
rvi
▁pena
appunt
▁advance
▁Grupp
guardia
diamo
▁African
ativo
que
▁simili
▁protest
▁perfect
▁promis
▁parten
▁om
body
independence
dem
▁minutes
▁pone
▁elements
eggio
ahead
▁tess
▁sum
▁23
uri
facile
▁series
tardo
▁coal
▁Doc
▁voice
▁sover
nziali
scritt
lando
▁60
structures
▁ass
▁conve
▁territori
▁target
▁enjoy
detailed
ssa
evitab
▁messa
European
umana
▁comportament
indipendent
▁got
comunist
▁citat
▁ar
ag
istruttura
▁dev
▁origine
▁fro
▁articolo
Att
▁basi
▁clima
▁actual
cati
maximum
mutual
mphasize
);
mitted
▁organism
▁2,
trasfer
▁deliver
asilo
▁canto
african
▁alto
approve
▁senz
sequent
▁relationship
▁viola
recommendations
delay
▁opening
▁gave
▁hours
▁wonder
▁sign
▁comport
▁Single
tenimento
ienti
▁proce
▁organi
grounds
Cyprus
▁Middle
▁consensu
▁Rome
▁analog
▁seri
spent
Baltic
▁send
industries
▁produc
spoke
unan
pica
laus
):
▁Tali
arie
stituit
▁pi
talmente
posti
▁steel
gone
▁obsta
▁tradu
onale
▁child
important
fisher
▁1979
viar
territory
moving
▁concorda
struire
▁posta
nations
▁gross
▁harm
located
tors
tesi
ONU
▁suggestion
▁attack
▁sound
▁adapt
▁militari
alisation
eurs
omprehensive
elevato
impresa
assun
▁Public
prescind
▁controvers
▁declin
▁compare
▁easy
cess
tono
flexibilit
▁heart
▁0
/87
▁ton
ping
▁contributi
linked
▁detail
▁solve
▁scale
mediatamente
▁build
oggetti
ble
▁campagn
usse
▁disc
tirar
▁Netherlands
positions
▁network
ria
languages
ivo
leggi
indu
basso
▁guarda
sibile
▁asyl
employe
▁manifest
Tutto
▁assess
ili
▁condu
indagi
opinions
▁automatic
▁2004
judge
▁ugu
▁distru
▁front
holding
determination
')
▁tortur
famiglia
▁Gia
▁Bre
import
▁construction
▁increment
nza
incontro
ising
of
ssare
▁SME
▁aliment
▁fruit
istica
▁distribu
iera
▁capit
ecentemente
dicated
dipendente
Danish
abband
▁VAT
talks
▁segre
ommunities
iché
2-0
▁accelera
atamente
acts
barrier
sensitive
▁Patt
▁Cert
urare
oratori
finding
debt
sunto
dotte
▁massa
▁replace
scher
area
▁sovra
▁qualifi
▁Chair
occhi
▁sides
▁Sol
▁1,
▁late
▁volume
▁socio
▁concord
▁Alla
king
ship
chairman
▁promotion
▁disappoint
▁1997
▁stabilis
▁fenomeno
economie
ens
▁round
▁basta
▁Gran
dotti
nze
▁dur
▁assur
▁transi
▁tab
terà
tecnica
destroy
suppos
empi
IVA
occasions
▁pass
▁tradi
▁conseguir
tutel
▁sto
immigrant
▁nota
tely
mended
explanation
ani
▁stat
olare
▁locale
▁invi
vig
▁attent
▁distribution
inclusion
figli
ex
▁cita
izzate
ical
▁1991
ency
ionamento
andosi
gencies
▁launch
▁Fin
▁1996
ists
▁CAP
uno
tecnico
▁norma
▁Western
▁Stra
▁Oriente
▁election
▁visita
▁parallel
poca
▁desir
▁CO
ultimate
▁quart
▁examin
il
ifying
▁range
operatori
▁month
none
ou
marca
bilmente
saving
▁salari
passenger
▁Japan
nica
marchi
asse
▁spera
tragic
bono
▁families
▁president
pol
prevention
▁glad
acchi
▁med
urgenc
involve
Cooperation
lezione
▁accompagn
americani
candidate
According
chemical
▁imper
ger
▁Many
preparation
▁god
▁deep
▁ba
converg
occo
▁bo
▁dedica
▁Serbia
assure
finito
erzo
sti
▁label
▁complicat
▁din
chiama
▁interpret
fonte
▁Such
etichet
seguir
▁organization
▁caric
▁attach
▁head
Strasbourg
▁Dur
Britain
▁arrive
▁primi
rising
Does
▁Only
compagni
associazione
▁tend
▁Poss
rati
sen
▁Afghanistan
ified
▁garant
While
▁tradition
drawing
▁nu
▁regular
▁sosti
▁serio
▁Transport
▁enter
intero
▁medio
▁specula
▁leaders
▁Sar
▁satisfac
keeping
examine
stipul
▁naturale
▁Pres
▁break
D
▁etc
whatever
elettric
▁compren
segue
▁Paper
▁Β
▁quanti
▁pros
▁material
interni
refus
desc
▁Pu
pacific
soluta
▁presti
aceful
▁investi
▁Not
▁illustrat
aiut
Dutch
▁april
written
scribed
▁perme
”,
traordinari
▁bu
iste
▁Other
bound
▁sacrific
▁eco
bbi
▁naturali
sch
what
tor
▁Energy
ready
experts
▁networks
problematic
▁Thank
membership
▁porti
▁26
miss
famigli
WTO
▁industria
entemente
ommunist
defined
po
▁don
▁Federal
Consumer
als
▁PAC
situations
▁vieta
▁disponibilit
oubt
nici
▁lies
".
▁Medio
employees
▁industrie
▁oblig
sible
hundred
rigid
▁frut
vio
▁•
▁denuncia
ttima
▁Mediterrane
▁Sea
tendo
cetti
ancor
▁cal
▁Cuba
▁employ
pagament
compuls
severe
facts
includes
average
CE
Ladies
▁olan
▁Will
▁applic
Agenda
▁los
▁sera
traditional
prende
ferenze
▁Here
▁materials
▁Trade
▁dump
sioni
une
constructiv
permanente
▁articoli
▁J
▁Inn
arli
▁reaction
tagna
phase
interesting
navi
▁pagar
▁Dublin
fatte
des
ramma
▁surprise
force
▁Andri
▁preventiv
officials
▁garan
tobac
▁motiv
▁moral
▁From
▁propriet
vehicles
achievement
86)
▁Va
▁Bass
mazione
▁2008
uscita
cità
▁significat
▁senten
▁crimin
dignit
▁nomina
▁condition
democrat
whil
uale
planning
▁pras
▁bench
Denmark
▁persua
temporane
hose
union
▁Russian
▁innova
▁Berlin
▁mass
▁Tra
▁2006
evening
ARC
OMC
▁source
▁seg
ying
elettronic
larga
▁topic
▁piani
▁bat
ghe
▁preceden
zios
▁tru
▁sider
recommendation
▁zu
materie
suscita
▁2001
venta
quotidian
▁28
▁tipi
▁felt
▁cancell
▁Security
starting
▁profu
most
diplomatic
▁strani
compensation
▁grow
offerta
cc
▁presenc
▁impi
B
cifr
tassi
▁reservation
piace
latter
chius
▁capac
▁Nos
specialmente
▁Protocol
waiting
▁Prime
▁Italia
▁ini
▁emergen
▁operations
▁rica
▁peti
gnale
cias
Portuguese
binding
ggeri
rato
aside
▁2009
el
▁tri
potenzi
sinistr
apport
millions
messa
ascun
impression
ambigu
ighted
ggere
▁reca
▁apparte
intendo
▁appre
▁Yet
flexible
▁conserv
location
▁Dani
▁organisation
▁scu
dico
▁str
▁nazional
▁immagin
liberale
endenza
▁organiz
▁sovr
dendo
vecchi
ious
detti
▁testi
▁ph
tried
attie
▁Protection
dispone
▁stup
side
cato
▁scru
▁studies
/85
structur
ively
Libro
impost
atlantic
▁intenzi
cca
▁Y
▁reserve
▁define
titled
▁Time
crain
au
▁formular
truth
▁terren
like
▁monopoli
▁illustr
▁fab
potenz
continued
▁simpl
▁convention
esser
umano
▁Programme
labora
tico
emergency
atto
▁fire
vità
boli
▁2005
edesco
▁ideal
▁Latin
▁1995
niente
effett
temporary
osamente
▁Vot
▁riu
▁Solo
▁logic
▁privilegi
▁intr
ecologic
▁feeling
and
▁veloc
treated
issima
ott
herent
▁National
▁India
Auditor
enuto
▁mult
extended
▁Pakistan
▁THE
niti
▁works
▁perder
serves
versione
erna
▁peso
▁29
ridu
▁exemp
▁dubb
interpretation
▁2010
▁observe
Northern
Political
mbi
▁meaning
ward
essivo
▁passa
▁conclus
mis
alizzato
▁opposit
▁2002
▁transparent
▁exclude
nied
Africa
operating
Because
▁Ep
quilibr
mando
▁arm
▁esit
▁Prima
▁Georgia
▁2003
▁forti
ina
▁2020
chino
▁details
▁capo
fields
operate
ultime
balance
▁genera
published
ish
mplications
▁Office
indicate
▁organis
appal
lato
collective
investigation
▁banks
▁absen
djustment
▁trading
logica
indicato
▁sever
port
▁goal
occupation
▁Ten
nio
cluded
(
▁significan
clusione
amici
5%
ccher
esistente
fair
▁sing
▁green
places
rilas
▁gap
▁beni
▁politics
▁gradu
Maastricht
associated
▁recommend
scriver
ize
▁Pan
▁urgen
fring
zion
cles
hood
▁entry
▁energie
▁turc
tata
scala
encourag
stia
▁doc
▁benefici
started
centi
▁divide
evaluation
segna
▁extension
▁Alt
▁spok
▁disease
▁slow
▁constitution
▁insurance
▁count
▁immediat
ommissari
Grazie
▁decen
▁Belgium
▁Mal
her
▁pret
sessua
▁gradua
▁separat
ulo
ndemn
▁tasks
communities
▁statu
rgence
arre
▁inclus
▁Asia
sta
▁reali
ddi
cresce
▁orient
▁EP
ncio
mbe
▁mark
linguistic
▁300
orough
africa
▁seven
▁accompa
▁diver
▁Thu
dita
arguments
Where
▁conduc
▁Head
desidera
asier
alità
▁male
▁rend
▁cur
▁bank
ction
▁dollar
▁character
judicial
ego
▁religion
▁casa
▁Rit
▁Devo
▁permit
▁3,
vrei
▁path
▁grat
van
sport
▁dign
▁campi
▁distingu
▁minori
ships
▁impar
▁hands
▁PAR
▁operat
ucci
▁procedur
▁pol
exclusive
▁argument
▁century
standing
▁retribu
▁intro
tari
deadline
▁Martin
▁Ness
erci
▁Israeli
ava
requests
▁fede
plicit
corrente
▁reag
▁tribunal
▁constitu
soviet
nquiry
advocate
sphere
▁informat
statistics
voluntar
▁objecti
way
General
87)
▁nord
▁board
merita
card
prezz
▁PMI
▁neutral
eventi
vessel
▁wait
fusione
pprov
elfare
▁immunit
contributions
pensione
mobility
eroga
origine
ignore
field
▁intens
▁dicta
ziani
shared
revenu
gio
constitutional
nitori
▁medicina
▁1993
recovery
oggett
▁requirement
▁det
dependent
rili
▁scritt
▁marketing
▁droga
▁Consider
foundation
▁Propos
supervision
▁Fisher
examples
▁apart
ttivi
aro
▁fast
united
▁interpreta
▁realise
▁israel
j
▁ele
▁Agency
▁20%
ru
stan
izza
fighting
motions
awareness
▁au
▁abandon
RO
▁trasm
▁interne
productive
tiche
elli
pi
▁Ring
ditt
autorit
pendenti
diversity
notice
lays
▁sugar
▁Vog
outline
2-
▁verde
▁airport
▁compliment
scrizione
referring
enzie
▁tenga
kept
▁acqui
expens
etta
ert
▁engage
▁adat
vesse
approximat
legati
accounts
▁rinn
abitant
▁urban
▁top
▁observation
▁ist
▁cru
▁medicine
▁distinct
bene
cal
▁correspond
investments
▁paper
plan
▁cine
accett
sorry
targets
temente
efficien
▁envi
▁obie
scale
vendita
▁cooperativ
tempest
set
fame
announced
▁compete
▁reli
▁50%
reiter
odice
▁licen
▁Quali
▁integral
cro
Albania
▁alta
Another
▁plural
ificare
▁modi
pone
▁indi
gata
sensible
avour
diffusion
▁Pos
PE
toria
equivalent
▁underst
▁patent
▁patrimoni
ood
▁port
rat
nito
atisfied
▁Ukraine
rifu
DR
utenti
length
▁ni
aprender
proved
▁impre
▁mani
▁diff
equivoc
▁interessante
▁privati
▁meat
messi
▁miss
ttica
legale
▁diffus
▁revis
▁Kyoto
trici
▁Herman
stituti
dette
▁vole
ral
tazione
right
AIDS
azienda
▁feed
fil
▁servir
offers
EL
ZIONE
▁possibl
essiva
cono
assurance
NI
▁stra
▁contradic
/90
▁protected
changing
▁pens
▁centri
affirm
maritim
conversion
ever
▁Media
▁ferm
ariamente
▁signal
▁Tw
▁double
ethnic
▁eight
bol
attacks
ssato
▁tagli
▁conc
PSE
▁equipment
▁Four
▁micro
Organizzazion
▁pres
types
▁volt
▁differ
▁Pac
▁Fra
▁sospe
▁violent
retti
M
▁black
▁Canada
▁processi
otti
▁regulator
brano
taining
destra
▁warm
▁beneficia
▁belg
ter
peggi
guardar
onsequent
compliance
mine
block
rite
murder
▁answers
▁geografi
rammatic
played
▁sett
▁isolat
entered
RESIDEN
▁bianco
▁Dire
usare
religious
abuse
identity
enzion
▁school
▁cura
umane
▁English
▁democrati
▁ferma
expectation
▁flag
pay
▁religios
gano
▁links
ould
nda
90)
estimate
▁Qui
▁exces
brevet
lig
heading
americano
▁Copenhagen
ntemente
Italia
▁version
▁push
estero
▁carta
struction
nale
▁space
year
retta
▁minim
▁Pot
▁regim
▁conferi
▁centi
▁Women
▁Nar
ions
investimento
▁10%
inflation
arne
▁Clinton
acquista
▁exploit
▁differenti
gue
avete
creato
absolute
cknowledg
judg
▁nation
jes
europe
▁Ess
stressed
prepare
cere
▁migrant
▁Olt
Joint
dì
▁sco
▁produt
▁debit
▁Or
into
latest
▁virtual
arle
Bosnia
▁ampli
▁tiene
▁leg
trano
migra
Given
▁1-
leadership
Employment
▁corri
▁4,
realizza
petra
▁Sweden
▁Control
representation
▁destina
V
caricat
▁Del
ehaviour
▁train
tta
strike
inter
anni
▁St
riport
▁wider
▁vers
▁seat
uitable
▁evita
▁deposit
▁Bang
highest
▁Personal
▁Director
Fontaine
▁onde
▁cancer
persecu
▁facilities
racy
itting
credito
▁flott
nciare
mission
▁categoria
certe
ana
▁Die
lecit
ily
▁medical
zional
▁preval
▁perso
ings
dove
▁postal
istic
ggio
▁complet
▁cristian
▁friends
volt
▁meridi
▁Christian
pillar
▁Under
intensifica
sime
direct
bb
▁devast
▁option
ove
84)
inglese
inde
▁Ce
▁section
went
reconcil
employer
▁70
veniment
tructural
▁rational
studenti
tasse
ently
▁En
▁macro
▁minuti
residu
respective
telecomunica
historical
ccato
▁See
▁rec
acting
▁tragedi
alternativa
gno
ecchi
▁size
▁Sve
visti
85)
nde
retto
/86
poche
anto
▁preced
ttività
sh
▁vast
▁honest
segnat
fluss
▁Market
itness
stuff
nisce
▁80
buro
▁flow
▁Jackson
wealth
seeing
▁imped
Belarus
▁sette
▁normale
▁intelligent
▁pat
endere
choose
▁admit
▁Ov
erenti
retario
▁initiat
▁restitu
▁historic
ministra
▁insta
▁systemat
stands
losing
built
vada
▁plant
▁combin
▁weight
▁White
▁vin
▁brutal
▁veni
▁Madrid
▁associ
diseases
▁speciali
rispond
beef
stable
sanno
▁Czech
qui
numbers
acce
▁pazi
istiche
▁indicat
▁ble
proof
▁valu
roc
▁Uno
wing
tassa
▁App
compatible
ner
▁Nor
▁Are
catch
missioni
▁caut
giust
▁anticipa
▁Balkan
ette
erlo
morale
▁terra
▁cam
atory
▁ports
▁chair
opened
gia
indici
tate
innovative
▁Hav
disturb
provvis
▁quant
▁Helsinki
▁35
▁restar
ton
brevi
fr
complaint
heavy
issimi
▁preparat
rio
ini
▁vir
▁recep
Com
afford
underline
determine
opoulos
aderi
▁limita
redere
sman
raid
▁valida
scuol
▁trasc
▁vision
▁profilo
8
aving
▁materiale
▁Thursday
▁Arn
entrat
ons
legger
consider
Est
▁soli
ke
▁drast
rist
exploitation
▁Food
flu
sequence
▁Hu
stituto
▁III
▁ti
▁ratifi
▁messi
▁rila
▁categorie
▁terri
esperienz
▁porte
▁banca
italiana
▁property
▁distribui
▁1.
dispute
satisfaction
ding
naia
esti
▁tur
largest
arise
▁rav
▁foot
rono
ombra
vostro
somma
",
▁fresh
tando
Zimbabwe
▁utili
▁fer
▁Membr
ffered
ettlement
▁punta
examination
embarg
ogne
82)
▁prov
▁liquid
house
plants
completed
▁preferi
fixed
▁Ew
usual
▁contemporane
lesson
ttimo
olante
▁finanz
guada
dossier
▁intent
strade
giati
▁sba
▁identif
▁release
▁pensioni
roga
▁convi
inspection
beneficio
▁integra
orto
auto
cing
viament
supplies
ny
▁italiano
▁disse
▁cars
prese
av
▁zero
▁migra
▁90
etto
▁deals
driving
▁imagine
▁alter
southern
petition
viaggi
▁veto
▁component
cities
divide
puto
▁ind
▁wor
incidente
Financial
dication
gge
▁Brok
▁Alliance
addam
nisse
approc
▁restor
apartheid
▁preva
Strategy
La
▁gravit
▁expand
▁Ed
Secretary
▁vasta
▁mag
▁fit
operators
intes
inchi
▁ridic
fortunate
someone
▁hoc
▁San
data
▁saw
▁rac
▁discipline
elimin
electricity
▁artificial
▁applications
▁trend
massiv
processes
▁vede
▁alcohol
▁bit
udere
▁diploma
▁progressiv
▁prem
timento
prio
allows
▁tension
▁Elle
ch
▁Pre
▁suspend
▁Conclu
ill
tention
goals
▁touch
/89
▁tut
rate
free
▁regulat
▁soff
bagli
▁personali
▁Nei
youth
▁poste
igi
ological
loans
▁trial
▁testimoni
▁des
agency
gliato
viata
knowledge
▁pote
ghere
▁Quell
dizioni
▁compatibil
▁Malta
reveal
▁guard
solved
▁preca
lying
▁Du
finitely
GUE
▁veste
▁flee
letto
fternoon
▁OF
stri
aratteristiche
shadow
warning
usura
▁students
▁progr
via
unta
▁automobili
tavol
nun
▁processing
definite
▁spa
associazion
▁recal
empha
Once
tier
worthy
orario
izzazioni
▁running
▁town
▁island
▁biodivers
▁5,
seguit
▁tante
▁Chinese
gers
▁investigat
egnala
▁raw
▁gender
▁scat
nato
trovo
▁daily
▁offr
stici
W
▁react
▁prompt
sager
ompletion
▁sof
▁aeroport
▁1975
torio
lattia
▁dia
▁background
▁solit
dando
▁sens
▁prior
crop
▁denomina
faith
comprende
▁Ba
pa
species
rivel
itati
▁Adam
▁blood
carcer
alendario
truttura
lecommunications
percentage
▁applicable
▁Macedonia
schools
▁sot
limentazione
ine
ssein
modest
▁War
tri
gan
▁exclusi
raising
▁periferi
timi
Without
81)
▁Propri
▁protesta
▁news
▁lista
▁Common
eks
▁400
travers
nimo
▁Hungary
▁Fundamental
ovo
issime
migration
ible
▁familiar
▁materiali
▁competi
▁1994
dollari
ceiling
▁Roth
▁London
scienz
▁superfici
lar
tesse
ambition
▁ple
primary
arma
▁string
mino
▁Action
latina
em
building
▁effici
▁room
chimic
▁spre
▁pomer
legate
point
asily
▁bann
illusion
▁necessita
▁Thorn
ceeded
HU
▁previ
advertising
▁Centre
hiamo
G
▁qua
▁Japanese
▁Coul
attori
corro
▁uns
▁informati
textile
jection
▁save
titol
active
▁Pen
accent
▁stay
justify
▁suc
acciat
▁night
▁Ac
ania
accen
▁bearing
▁IN
tarsi
sal
▁She
ricerc
▁analiz
Polish
▁tw
▁Gaza
found
explicit
▁vino
▁DEL
▁ingen
▁Balc
utile
take
attivi
°
rette
▁naviga
rying
irà
airline
▁attiv
logical
▁sved
▁Gul
ificato
▁stabiliz
bling
▁article
▁sentiment
pico
vuta
cuts
atterson
americana
▁lobby
▁distribut
tersi
alizzati
▁Man
esimo
▁mir
▁El
▁inqui
landestin
stake
pongo
innocent
erno
▁collaborat
priv
edifici
dicato
coordinate
External
▁politic
▁offert
▁dator
▁facilit
▁indir
macchi
imi
genocid
▁electronic
▁rigo
▁Well
▁DI
▁vulnerab
ipote
▁ideologi
disponibile
Nicaragua
stico
alla
▁sexual
qualification
Decision
corporate
accurate
▁ripr
▁Nice
playing
heria
▁pluri
▁Arab
▁assol
cifra
ab
▁indie
▁butter
intensive
enforce
▁NGO
▁yes
▁sets
▁autonomi
▁Tibet
sperimenta
ecchia
cris
▁pesc
▁censur
dur
azia
onare
profit
isse
healthy
nforcement
N
Both
▁traged
nesse
advanced
▁items
▁prohibi
▁nutri
▁impuls
stimated
▁Cos
▁net
▁possess
▁Anne
use
ecchio
▁discre
▁Scri
▁south
connected
▁modes
▁irre
ut
claims
cata
▁comunicat
▁■
▁liberaliz
▁autentic
▁guid
▁armat
▁concep
▁assassin
▁Golf
▁Vietnam
levy
lieta
▁organic
▁identit
mbudsman
edimento
alcol
nagh
iere
irsi
falls
▁ultra
▁Z
tiro
▁ministeri
lame
▁imp
▁exceed
▁conting
▁Collins
familiare
ggiato
vocational
stages
brica
▁corru
▁consegui
imported
▁vulnerabil
sight
served
piti
light
org
▁intelle
ovina
ione
ho
▁75
▁crede
▁Paris
uggle
burgh
▁secret
venti
Lebanon
▁users
▁Cope
nd
ingresso
Liban
gua
comprensi
assent
▁minima
prezzo
anime
▁persist
▁perform
nuncia
esen
emos
▁mother
▁cat
▁Ford
tua
▁rett
▁comunicar
▁85
tamenti
▁verg
Citizen
▁pilot
controlled
acquisto
▁Its
ncorporated
▁computer
▁Part
immagine
tracci
grav
ttoria
▁Cro
minded
emorandum
▁couple
▁straight
▁marginal
turned
stance
dinamic
subordina
▁extraordinar
▁object
levante
▁strategie
▁2-
ographical
larity
▁abs
voci
educational
▁tele
▁fur
aught
▁dir
rodotto
▁quarter
tici
interromp
plica
▁sake
▁prezi
sorpres
Swedish
ONG
▁recita
▁prose
▁Na
worldwide
▁mine
▁Pass
▁Concord
storico
▁spett
▁Wo
laying
▁dead
heritage
▁vener
▁Atlantic
eply
▁nett
pete
ezze
Croatia
▁licenc
▁Friday
▁Front
physical
▁pil
▁aspir
fer
entato
▁eyes
▁host
rimas
▁schi
▁Invit
▁decent
vario
ants
phob
lta
ede
▁contempla
bassi
▁motivat
▁extensi
▁je
cological
▁aero
▁Eur
restore
scade
▁alarm
▁High
tazioni
1%
▁sc
saged
fusion
SCE
▁poli
▁Year
imeno
▁termina
lati
▁combust
▁class
concentration
ggression
fortunat
▁below
icolo
▁appare
rimbo
Hungarian
owerful
demonstration
barriere
▁Spin
▁Congress
tight
ingolo
ieder
▁signifi
▁Sull
▁1978
▁facil
▁Biel
orient
▁¡
registrato
pon
orussia
gau
▁intermedi
▁assi
▁2.
▁Gen
ordinary
▁Timo
teva
cking
▁ut
▁operativ
rei
corruption
▁separa
nditori
▁piece
attacc
▁Allo
mans
cimento
alisti
▁emerg
▁Papa
▁tren
▁marine
essa
▁Just
sedia
▁professionali
electoral
▁fonda
tom
taglia
▁pan
▁40%
enomeno
manufacturers
chosen
▁visa
▁battle
ispir
ristina
bly
▁Pe
zze
pite
▁boost
intellectual
T
▁tim
ished
curi
▁sorprende
▁RES
▁rag
condition
ami
wage
onservative
ALDE
▁Association
▁...
genti
chapter
▁grav
▁Cap
▁possi
gh
communications
▁seria
regulate
▁sale
▁contabil
▁handicap
▁fasci
▁door
▁cari
broadcast
▁positiv
fused
assemble
▁science
▁mandat
ped
izing
▁dynamic
▁Mai
ienza
carbur
▁distin
coast
▁impli
ot
P
▁picture
▁confi
▁Session
lasting
agree
elder
▁grass
▁voli
▁demografi
depth
▁hit
▁fuo
advice
excess
▁forum
▁except
vanza
nunciar
▁Ris
▁evaluat
▁Veil
▁Wall
movements
disabled
cine
▁30%
▁Vienna
▁Prag
risi
▁organo
▁Ai
visioni
preserve
▁pen
▁comp
ology
▁parent
▁dura
▁compost
▁Like
▁Petit
▁1976
posta
dhat
▁sci
▁preserva
uses
▁Londr
ciata
sumption
▁sed
preso
Algeria
▁identifi
▁floor
flood
ates
organismo
▁Tug
throw
shock
▁trag
▁eventu
orship
▁terror
strategies
▁classifica
▁Tutt
promise
operar
med
inta
▁Av
videre
▁clean
▁friend
ttere
expansion
▁ali
3%
esanti
▁journalist
▁fif
▁Mah
▁mar
armed
▁Core
▁150
▁eye
GDP
83)
▁burr
▁morti
▁(2)
cades
▁venti
alto
itario
fibre
fezion
▁generation
carrier
colonial
OLUTION
storica
comunicazion
▁EUROP
▁Cons
finanz
▁mitte
▁Li
oli
▁genero
hreshold
false
tera
itu
▁mini
itaria
rrible
progressive
deschi
▁digital
SV
▁2000.
ber
Accord
orveg
fisic
▁poll
stabile
aries
▁moderat
llora
inutil
▁resist
▁Taiwan
ziare
larger
envenut
▁sf
modified
expensive
entri
▁incendi
null
ciando
▁arbitra
dividi
aircraft
▁tool
▁Alle
endosi
ECA
mplici
les
interpret
▁sales
▁gest
▁ecu
▁Eb
ramento
icicl
adher
Following
▁completo
hunger
hazard
▁GU
▁6,
▁Monday
scio
satellite
verybody
▁PIL
nissimo
ualità
rose
continuo
ament
▁fren
aids
aging
▁pain
▁terre
▁Richard
heart
sembr
▁band
▁options
construction
▁Any
nite
▁tourist
troop
▁st
avver
▁Christopher
ologia
▁city
Sudan
▁vie
▁Education
son
▁aff
▁cure
interloc
integrate
amati
▁register
▁pale
shift
▁summer
▁supple
▁periodi
▁learning
▁hour
mantel
▁buy
▁ordin
▁arriv
deserve
BSE
ecame
dare
Tunisia
▁sup
competenc
campagne
▁rare
▁har
▁Dato
▁Culture
volgen
ciano
▁spo
▁compensat
newspaper
▁mit
dy
adjust
comparison
▁valer
cchia
▁sig
▁prec
▁combina
▁Framework
respons
▁IV
vegetable
notizie
isola
▁stations
▁Clear
utstanding
conservation
byl
oghi
gger
fragil
▁nine
aggiorna
mining
▁vo
▁rima
▁partecip
austria
▁absurd
opard
legra
entre
covers
zzare
▁Finland
▁DG
infla
ff
25%
▁7,
rezzat
su
/83
▁Mean
killed
elief
▁schedule
▁Rog
▁Bush
▁600
enziale
▁comun
▁category
ad
▁fix
▁vaccin
arian
Internal
▁sl
▁Organisation
89)
▁perdi
▁dair
unti
▁Indonesia
▁sympa
▁specialist
▁anticip
uniforme
fianc
▁1977
rises
hesi
▁pensions
excus
▁ferme
nchi
fate
avvi
▁rad
turno
inquiet
▁universit
itarian
collaboration
noise
Left
▁vehicle
▁skills
▁search
▁frank
▁McC
▁mutu
▁Great
tratto
sche
precision
asi
▁alti
▁performance
▁Seg
▁Gau
army
ete
▁semestr
▁Cau
viven
▁opere
CSC
sually
shame
arvi
Resolution
▁sp
▁incon
surround
▁Wel
fortuna
avamo
claration
gun
▁wag
incapa
Christian
▁Yes
▁Colombia
▁Est
▁45
▁espon
ecutivo
roads
oever
▁grand
▁Washington
avia
▁farmaceut
ckling
▁xe
az
▁contamina
▁Tom
turning
scuola
▁house
▁core
rotta
dependence
▁lie
categories
ariety
▁Ob
▁Hab
EUROPE
▁consolid
▁Kle
·
voca
post
▁Az
pensier
dono
▁incorpora
▁Plan
▁Am
ofi
executive
disabili
tering
stituzional
ease
Jp
annex
▁ripro
▁chimi
regola
▁propaganda
▁muov
offerte
SK
invasion
Before
▁1974
▁calo
▁argu
▁Sant
▁RI
arco
tribute
tente
residence
itura
Youth
vecchia
olving
acted
cita
▁indicator
reported
relate
pressive
formare
alle
▁monopol
▁mid
▁Dan
allegro
McM
▁gr
▁collect
observer
AGG
exchanges
▁proclam
istico
iggest
▁priva
▁cong
▁Det
pleasure
indigen
▁purchase
▁August
olio
aviation
▁pragmati
spondent
bole
autor
▁advers
ians
▁storage
dly
▁Safety
portati
ichi
Congo
▁Wednesday
twenty
Finlandia
▁lun
eggen
ulation
▁agent
▁distint
▁Relations
proud
accessibil
▁star
▁confus
riti
lupi
borne
linne
ck
achen
▁compar
filled
▁tem
qual
astern
Morocco
eria
▁Information
▁Articles
indirizz
▁receiv
▁nas
ung
▁Rom
agan
▁Industrial
shed
entando
closure
abilities
▁farmaci
▁equi
▁definiti
▁aspira
sconde
case
▁deterior
oglie
harmaceutical
lazione
▁refu
▁wind
▁Mac
dramatic
▁stre
▁influ
quality
▁symbol
▁giu
ritro
giornat
▁noci
universities
eta
▁revolution
▁guide
ène
▁tests
ightly
▁cate
▁Red
▁Every
tizia
gami
▁arab
wide
inf
▁48
▁patients
▁camp
tries
Estonia
▁Aus
▁pretende
lings
dimos
▁liet
▁Ro
▁surviv
▁VI
▁Fisch
EU
▁sare
▁hypo
EAN
▁felic
▁1973
▁nove
▁Squa
▁Lange
tre
liev
crise
▁Pi
vendi
▁delica
timit
exhaust
ertain
2%
▁trouble
▁marked
▁discover
accumula
▁silen
shares
▁somme
▁shape
ponder
ilmente
Community
▁elimin
lanti
iuta
accoglien
▁Price
night
▁negar
▁confident
enziali
SOLU
▁televisi
▁geo
▁capita
scenario
colato
▁bomb
▁Jean
ALE
▁inden
CS
▁satisf
▁Ber
tiny
ises
▁Two
▁Ex
▁Condi
▁2-3
ticamente
gnare
▁desert
▁sme
pplicant
nia
Objectiv
▁organ
▁autori
▁Poet
▁originale
pertinen
covering
trovi
net
▁lan
rogh
AMENTO
5-0
▁passiv
soldi
▁integrit
▁drink
Scotland
dan
▁unique
▁Gor
licate
Angola
▁Chile
moved
ice
eugen
attoli
OJ
MENT
▁vite
▁Korea
sort
destino
In
pressing
aggressiv
▁successivo
looks
▁Over
▁neo
▁Hong
tini
appointment
Or
LAF
▁triste
beek
▁prolifera
▁Dall
regard
gu
dirigent
appreci
▁risc
iamoci
▁olive
▁Pap
▁adult
appointed
▁Round
repent
▁refund
▁cheap
▁tute
▁smal
▁rating
▁3.
▁north
▁eman
autore
scoper
dis
ofobia
igh
▁manufacture
cke
▁Kong
trupp
ailway
▁barbar
nevra
matic
▁translate
scrive
du
tino
▁veri
▁imput
▁York
how
down
▁Sta
Namibia
▁simultan
▁percep
▁Reform
OG
▁retir
definis
▁System
sia
▁renda
▁frase
reflection
▁sensibili
idone
position
aire
agosto
Geneva
▁annu
ecco
▁stimul
spetti
▁guil
▁compromet
valuta
nesses
caccia
allowance
▁yourself
▁pai
ffari
▁cast
vendo
maintenance
habitant
▁blind
▁Stoc
onda
modelli
▁imperialis
▁cosi
▁Para
advise
lly
▁Most
▁Institution
impossibil
▁subsid
▁prom
rete
asta
iglia
cristiano
Official
pia
oastal
▁additi
Representative
▁image
▁fea
▁Donne
error
heads
fino
▁dominant
suspect
picio
▁Centro
tornar
northern
drivers
▁woman
▁injur
scontra
▁matern
▁parents
▁doctor
▁10,
signs
rtare
city
▁temo
olish
amme
Rural
▁Weber
▁Form
cordo
▁presentation
▁stopp
▁complement
▁Fer
▁Davis
offering
fault
▁1970
vest
roots
lancia
Tampere
▁prede
▁chain
▁award
orizz
incert
generate
FEA
tense
inci
Tribunal
▁sold
zer
ificat
▁gradi
▁Due
▁fals
preference
▁sit
▁canal
▁equivale
ubblicato
banking
▁xen
▁personalit
erie
cessor
passing
giornali
▁mobile
▁familiari
▁abort
Slovenia
▁Vert
gather
▁film
▁Cre
▁turistic
▁son
forecast
Also
▁invo
▁Mu
medio
undan
▁procede
▁servo
focused
▁resa
mont
cker
ables
▁Rico
generations
▁finish
tolerance
▁sic
▁minimi
▁classic
ential
▁quint
▁entre
▁som
▁8,
iano
▁Tem
omeno
▁SYN
igente
enhance
worker
▁sosteni
▁250
▁tranquill
vignon
▁experiment
▁Esse
SEAN
nock
ega
▁opt
▁duplic
▁albe
missing
▁identifica
roductivity
gen
transactions
laughter
▁alleg
▁Schul
▁mental
▁impro
▁bambin
▁arre
strain
▁biologic
▁Pag
▁dipe
▁commis
ecce
▁poc
▁delegat
text
day
▁sangu
rendo
display
Similar
▁conquista
estate
▁les
▁Ul
quadra
hical
fermo
▁Deve
dettaglio
4%
sentence
▁viva
▁DE
eggiat
▁keen
▁cercan
ulating
housing
concili
FI
essioni
0
nunc
lti
▁cop
▁Lithuania
▁Investment
schier
premio
rito
immun
▁sentenc
▁predispo
cante
buildings
4
▁helpful
▁9,
▁+
feld
aula
▁disper
hr
▁espan
▁Tourism
ugu
remote
▁stamp
▁shipping
▁neg
▁incid
▁Sco
inger
characteristics
▁distance
▁expos
salto
ifica
TE
▁pon
▁fasi
ello
/80
▁vent
versa
resistance
rely
razzi
▁gre
prudent
islands
▁automobil
ccellen
barca
ZA
▁embar
▁complain
▁Milo
vente
petus
date
▁ciclo
▁Who
ved
urazione
ortunately
coste
▁ipo
discrimina
▁spal
▁James
ualmente
conto
vie
anta
▁lord
▁femm
formato
gations
▁dif
tail
▁sad
technology
aspetta
▁ospit
timore
▁sell
▁coincid
collapse
▁wo
▁36
counter
▁Bas
shrin
hand
▁Rac
▁Michel
venture
ström
▁tunnel
ricc
hold
zzato
▁watch
incontri
egolament
▁spar
montagn
▁posed
tic
quer
bit
▁Industry
primer
cession
atrice
Guinea
▁Wij
thy
▁Doh
inile
accurat
▁fram
▁bar
▁simboli
▁Right
▁virtu
▁salv
LIA
soil
describe
accentu
▁Fitz
pertura
▁banana
tentati
substitute
pp
itto
▁features
ritmo
prejudic
▁premi
▁perip
ended
▁drop
▁Vis
▁Bal
lterra
disco
ammon
▁translation
▁eso
var
inevi
graph
arrow
▁retro
▁rap
▁marks
ziali
irri
▁minute
ndolo
▁serr
swift
modification
▁warn
units
▁vis
▁card
privilege
execution
copert
FTA
▁rom
wice
▁tools
▁congela
tte
cle
pre
players
duce
▁minuto
▁definit
rra
nation
controversial
▁drive
▁destin
sending
aglia
▁stem
▁attract
▁addi
owners
▁premium
quantity
ishment
differenzi
▁construct
▁130
Moldova
▁Comuni
riche
just
▁Ferr
rare
ige
clusiva
venir
containing
▁ser
▁promet
onstraint
ERD
▁birth
vocato
acci
60%
15%
▁audit
delicat
clear
ban
actors
passport
▁won
▁cent
▁articles
ser
▁Lama
sustainability
shton
rived
nying
▁inside
ttava
▁bal
minated
▁corpo
rives
ration
feit
ela
w
heral
▁virus
▁repli
survival
grants
▁mountain
trare
bis
▁tro
cate
Alle
▁Institute
vic
osti
mination
ule
uidance
▁Pear
state
olontari
▁pec
speci
▁vegeta
▁nominal
▁compli
▁animale
sections
gible
▁entit
rnier
aus
▁res
vasto
tify
inson
▁privacy
sfera
GL
▁consul
▁Nigeria
estry
amico
supervisor
▁Cock
sito
▁Foundation
lawyer
ages
Erasmus
▁resort
phrase
▁vend
▁medici
vert
nega
▁sor
teaching
imposto
ector
▁stick
▁quo
▁gear
vra
▁vad
▁registration
educa
Austria
▁cope
▁book
signing
▁solen
ripos
nounce
levant
ett
▁Marshall
▁Free
lona
▁Cher
rage
italiani
▁root
▁team
islamic
alizzata
▁resi
rli
ombo
abroad
▁ang
▁banc
removal
libere
acerb
▁sle
▁mang
compar
▁decidi
▁Hän
vention
incisi
Sahara
▁sex
off
Iran
6%
scientist
ille
ECB
▁experienc
fe
▁batt
council
▁sino
▁Athens
▁Mandel
servato
▁names
▁jurisdi
▁hea
▁convoca
▁Kin
▁Egypt
zone
7
cino
▁Section
▁fashion
ido
▁profi
▁2011
fallen
laud
cutting
▁acu
▁valide
▁Barcelona
▁12,
ves
rimento
gravat
▁giro
▁Barcel
ulous
invite
enda
▁mart
disputes
avvis
adatta
cir
timo
masti
▁insult
appearance
Freedom
fi
%
▁stare
▁riba
non
Schlei
power
kind
▁popular
▁pilota
▁cod
▁cito
▁Col
▁700
jer
entata
labur
▁Rest
nita
donor
lata
vuti
uris
rum
aution
Kuwait
▁rival
▁80%
vol
7%
▁friendly
▁Law
vegli
control
cando
lusion
crat
▁entusiasm
▁domina
▁Far
▁Cer
nico
▁registrati
hith
▁win
tarie
rumor
rimar
Jacques
▁spring
sorb
ponga
amina
▁vendit
▁priv
2-1
▁interessant
▁Tuesday
itative
▁Verdi
stima
identit
elle
▁collection
▁University
▁Board
▁Aten
circle
▁sharing
usato
tangible
▁Bench
veri
sides
Articolo
▁rei
▁Scott
▁Schmid
fossil
▁bill
▁2009.
Islamic
▁grava
8%
▁sorte
▁salmon
partit
levator
grupp
Ethiopia
uzzo
universitari
ras
antitativ
▁verifi
▁revi
Haiti
▁55
partial
moni
ideale
▁american
▁Ar
▁120
oxide
▁title
▁Technology
▁Pas
asser
▁radi
zzera
gati
emi
▁route
▁reput
▁fenomen
mographic
EMU
6
tropical
olished
rediger
migrants
iono
▁traduc
▁fung
sante
informal
▁resolu
▁Monti
warrant
▁lament
▁extrem
▁correspon
cted
ceva
bosch
▁remunera
▁charter
▁Salvador
▁Blai
assert
▁tabl
innovativ
▁divis
irregular
▁perdu
marked
Slovakia
▁2010.
tem
ssen
released
cer
accessible
Should
▁survey
▁mobil
▁feature
gg
▁sorg
▁communicat
▁Ban
ESB
▁pagina
▁miser
modern
▁moss
cion
▁Hama
▁Bel
present
maging
▁sog
pulsion
utilizza
ragazz
pl
▁problemati
plain
inser
▁analyse
science
essence
▁ro
▁game
older
Burma
iate
game
▁race
▁tende
▁plau
▁mineral
▁Text
▁Sin
▁Poi
▁32
stimulat
▁4.
Erika
70%
▁Sak
▁11,
radi
▁pos
▁Wol
vale
urat
attende
▁Trans
everywhere
84
▁stor
▁Car
newal
drew
deme
▁800
▁franc
trust
▁recupera
gitti
gestion
▁epidemi
rezza
cite
▁posts
ttled
with
strange
ifera
▁classe
▁Era
trato
stein
niture
ders
▁inso
▁(1)
unit
▁Verde
ugh
▁specifi
registered
patri
acqu
▁software
▁Costa
hoff
▁65
sura
sessions
entering
artigian
▁Ross
tendere
russa
'11
▁Sul
owski
oriental
mand
▁humanit
interferenc
uro
▁lor
▁piat
▁mon
▁recuper
▁Work
oral
Ho
▁publication
▁dot
▁Acc
media
IB
BEI
▁succ
▁franchi
▁arrange
orio
Romanian
Palestine
▁scena
▁Q
used
determina
auster
▁Whi
ceived
ESR
▁university
▁recommended
▁overw
▁Civil
herlock
▁modul
▁Six
machinery
earn
brou
▁prefi
▁interrog
▁33
▁reste
▁Your
▁Tr
▁34
Growth
▁Rip
ypical
visited
mmense
rup
ow
▁Dank
ón
tionary
eous
▁wa
GM
▁Vor
▁Apart
signature
rocurement
decade
carni
Everyone
▁coincide
rried
gling
▁convert
stat
itazione
argue
▁carte
deva
▁Ave
apprend
ritar
bo
▁Special
truck
▁rot
▁Has
▁Camera
oggiorno
divisi
▁viti
▁inspect
▁ide
▁diplomati
stain
heep
Deput
Authority
▁trap
▁inclusi
▁simbol
fond
escono
▁resum
▁resource
duttore
accounting
▁Cassi
gramme
▁mentalit
▁belle
▁frustra
▁Service
▁Posi
ccare
▁formul
mania
▁Govern
idis
gabe
factory
bati
all
Above
accompli
utton
utter
rso
gnali
caratteri
amata
—
tento
Occident
sesso
▁director
▁37
mong
different
sconfi
reight
ambi
▁surpris
scita
▁interfer
▁hospital
niche
▁spos
▁Mon
empty
dirett
gate
agenda
holds
domi
riment
pkins
zones
philosophy
lari
▁middle
vergent
under
▁Islands
HAIR
trends
ondiziona
onder
lievi
telling
stock
scontro
gna
ccia
▁expert
▁drog
▁Je
▁Bol
▁inchi
▁fatal
▁Home
vote
mprenditor
minent
locate
ets
▁western
▁sana
imo
ibi
eggia
oulou
▁stagn
▁potre
▁creativ
comparable
residenti
▁associat
ality
1/8
▁owner
ide
5
▁equip
▁identi
▁audio
▁Code
porto
helm
borg
Cambodia
▁soldat
▁halt
abitua
▁Munt
soldier
if
filosofia
▁toxic
▁Rou
tiopi
eppu
▁fill
▁categori
nhanced
▁Studi
▁Chant
stone
departments
alliance
danger
▁verte
▁Ta
▁Sos
▁95
ellett
▁remed
ccini
▁fusion
▁euros
tood
▁lamenta
▁13,
▁*
quote
notte
indicators
famos
▁regn
iale
▁alternativ
▁Mare
hrem
Nuov
▁semi
▁iron
authors
Libya
▁football
▁derivat
eken
zar
ron
ging
enuncia
▁tender
▁Bona
ssem
cre
automobile
▁vende
▁supplier
▁netto
visible
nesty
medico
▁reputa
primavera
officer
atmosphere
▁predict
▁gamma
plici
olano
guerre
amine
▁pruden
▁pick
episodi
De
▁mas
sharp
fill
Allow
▁gramm
surveillance
rano
▁white
nthusias
iling
essimis
currencies
Olympic
▁pul
▁match
▁apolog
▁Ben
GMO
80
▁fred
orrenti
healthcare
edere
corporation
teen
ollut
manufacturing
fascist
Asia
▁pretend
▁pig
▁PV
▁Cot
tant
implicit
vily
').
▁roll
▁nomi
▁deteriora
▁concentr
resume
lowest
▁dream
female
dous
▁Bö
rell
▁stran
rante
gress
duto
calculation
▁calc
▁Liber
▁tanta
▁Plum
fumo
isolation
ents
▁practi
references
▁transform
▁scont
▁decid
▁calculat
(89)
▁Hann
ked
igner
uggi
▁demande
▁Switzerland
tremen
▁protagonist
▁prestat
▁colon
▁arma
▁Svi
▁Christians
testing
ragi
▁Peter
outer
offri
daptation
▁accor
place
▁pull
nata
-2013
▁admir
▁Met
mature
gode
finished
eiro
▁lift
Nielsen
▁situat
▁David
til
effective
af
▁channel
telli
spender
missions
ELLA
EACH
▁professor
▁fru
▁Leh
level
continental
centra
ol
corner
▁smooth
▁Sub
▁2004.
▁plac
ial
expertise
announcement
▁Ort
therland
rimo
finland
▁Lang
urispruden
ba
▁interpretat
▁1972
ttractive
rovin
enabled
assembly
▁arbitr
▁Link
courses
▁lingu
evati
▁conviv
▁Data
tonia
▁spe
immin
visa
▁models
▁asset
▁agri
▁Pisa
▁90%
▁Slova
▁Pacific
oeuvre
esticid
comparativ
▁paga
dal
▁scola
▁protein
▁Region
▁Castle
sentit
▁exc
GC
▁supporter
▁Ved
▁Organization
relief
▁Que
▁Bir
stabilite
hinder
▁bridge
▁Mo
silence
rar
icare
ofthe
eravigli
rupt
ciclo
▁suspi
▁enterprise
odio
▁recover
▁pagin
▁His
▁Dar
usi
radiation
parsa
nis
acc
UEN
▁stri
▁notes
▁incur
▁calm
ctator
conosci
▁Bene
ringer
▁2013
racist
▁split
▁assets
▁agro
▁5.
settle
rive
levate
breed
Armenia
▁marci
▁associati
▁appr
pt
getti
agents
▁corte
fficac
anticipat
▁decre
ast
▁onto
tante
junction
eding
cenza
ately
▁chiu
▁Vel
▁Hono
residenz
contri
▁tort
▁notifica
▁facto
tappe
rosi
anniversary
▁2-1
▁100%
mer
lungi
gi
▁sports
▁page
▁mortal
▁fertil
▁92
Annunci
Through
▁correlat
▁complic
embrio
▁personnel
▁associa
▁abi
▁Rig
▁Brazil
ala
▁49
ric
itat
highlights
▁selv
well
routes
letters
inizia
flict
avo
▁acid
▁Ap
▁pays
wait
iscaldamento
emo
▁cald
secondary
irani
classification
asset
▁viss
▁2007.
fifteen
course
▁MED
istino
province
etica
egar
▁levi
▁Sri
▁secretari
medicinal
grazia
cessar
▁nave
▁Journal
owe
insiste
erea
real
fin
▁Liz
nanti
▁util
▁institut
egu
anistan
Please
▁um
▁Litu
▁John
umi
componente
▁42
uarantee
ttare
rea
▁father
▁Global
itudine
▁Brasil
orientation
Euro
▁parle
emed
atmosfera
▁38
rallen
embry
India
▁conclusi
vidente
lore
famous
bassa
asiatic
▁handling
▁born
duro
▁varia
Chapter
▁participant
viver
uliar
reverse
Syria
▁informativ
▁impa
vv
lì
endendo
taria
shing
lare
ancy
veterinari
teachers
illa
compatibil
▁sente
iani
cides
borsa
▁Galile
topics
raggio
ovino
▁sedi
▁fle
▁bus
Regard
▁viv
▁plastic
invitation
▁storic
▁Os
▁Barro
nitz
Working
▁Lanka
car
▁story
▁Albani
forest
allega
acute
▁43
leg
iness
▁planet
nos
▁adop
▁Lady
persistent
overs
dollars
broken
▁tang
▁cant
▁ambient
▁Dis
mental
▁insul
▁Cooper
residential
iero
Y
▁finis
▁creative
umping
▁dit
▁composition
▁Ga
ennes
Guatemala
▁Marc
▁39
ordini
listed
isen
ield
▁cad
ifth
▁valut
▁tendenc
iological
▁pose
▁Val
zog
social
madre
laterali
incia
▁atmosfer
▁Processo
enders
DEP
▁ann
▁15,
▁1-1
vent
▁store
▁2006.
abbat
EPP
▁calor
▁AND
fissi
ak
▁Gra
▁Ester
▁56
Palestina
▁consu
▁Commun
▁Card
rgica
makers
Montenegro
▁rubri
▁Bi
roux
oria
mica
issu
compens
▁sali
▁ese
▁autore
▁Statu
gon
tappa
ements
Each
journey
intrat
holders
conventional
commerce
combination
utazione
fold
▁techniques
▁gu
▁Title
▁Aria
zzano
central
▁supra
▁corro
▁Siri
▁provo
▁calam
Alto
▁symboli
▁Motion
por
mata
llor
lga
efa
▁format
lia
lott
arthquake
/91
▁negat
▁condo
zen
mplified
layed
insta
▁supplie
▁Sab
rez
▁propo
autonomi
Af
▁deci
▁Né
▁Cost
ona
attle
▁Men
▁tett
▁studie
tese
▁resolv
▁Solidarit
▁Putin
▁Kurdis
odi
met
▁bir
▁Finance
marino
▁testa
smoking
andre
numer
cibo
▁attenti
▁Sal
▁Essen
▁Bour
inti
▁cold
▁2002.
stile
ssico
spor
missil
liberty
igien
culture
Atlantic
▁vini
▁track
▁Hem
jour
▁slan
scepti
financi
Curry
ier
▁Jar
impun
grande
CEP
20
viste
country
▁vere
▁tant
▁Sure
late
▁seal
▁Chance
Democrac
▁prescri
▁homes
spazi
▁recipro
▁Wa
toriale
inquant
guided
Partnership
▁perpetu
venter
dates
▁valg
▁Dun
▁Bangladesh
pressed
desi
cali
▁plus
udin
sens
resti
lessly
investors
foster
ardu
▁libro
alta
gliett
▁eu
▁elementar
usati
orkplace
onato
anxi
▁2008.
sibility
▁fasc
▁1-2
trover
rino
millenni
titudine
respo
ram
pare
ception
▁Cancel
lect
killing
formed
edizione
ahon
▁blow
stra
ruption
federation
▁dual
▁Bro
▁Ana
runs
nesi
innish
▁delete
niversario
▁pesti
▁Jun
victory
recipient
calcio
▁reper
▁infla
ponents
dominio
digitale
▁proc
▁pas
▁organise
veniente
loch
cciol
▁km
▁bombard
▁Vie
igger
▁penaliz
▁Go
telephone
mago
ggiornamento
ac
▁Muslim
tunno
iame
escape
▁suprem
▁engine
▁ideolog
▁art
▁trac
▁summ
alacio
CG
pipeline
limit
indica
advis
adding
▁Sie
vit
usa
sig
channels
▁Boc
together
iert
Latvia
▁batter
registro
kozy
esima
bar
▁matur
integr
emergen
▁indul
selling
▁cellul
▁armoni
▁Wur
▁Eco
sistence
▁mor
rowing
don
87
▁servi
▁Europea
slogan
bat
▁textil
▁existe
▁earth
▁confess
banane
▁requir
we
pres
izzando
cular
▁village
▁toll
▁simpati
siete
Europe
75%
▁loco
▁fragment
▁Vol
acquisi
▁Uruguay
▁Bonn
rumen
▁rese
▁incer
▁cil
preferred
conscious
appell
parados
combustib
cola
annuncio
advisor
▁russ
▁pietr
academic
82
▁dispers
▁MR
▁Anna
tails
parlamentar
cn
acca
▁parametri
▁memoria
▁esplo
▁antibiotic
tima
solve
piano
hide
▁Alber
ureka
reservation
rammen
bottom
bordo
▁versa
mail
front
▁wake
▁municipal
▁58
▁sites
▁Cambo
relationships
circulation
my
▁wars
▁selection
▁mora
will
evil
colm
Yesterday
▁ocean
partiment
oper
Somalia
▁esp
ele
Jensen
▁Indian
stadio
▁station
CSE
▁respons
▁puntua
▁Schr
udiovisual
petta
▁write
▁soft
▁client
yards
unir
tenga
reporting
evat
distill
IG
▁Bond
ota
ossid
▁ped
▁lend
tensi
▁atro
▁Fich
▁Canc
vise
▁franco
orum
isch
DOC
▁moder
▁Temp
▁Have
tale
▁epi
▁Jan
▁2020.
suit
stabiliz
entier
autumn
arrog
Nordic
▁utiliz
▁rial
▁optimis
▁club
lin
grammi
atomic
OECD
(87)
▁patient
▁mix
▁interfere
▁disp
▁Cler
nali
indicati
ig
ARE
▁piac
▁dica
▁77
▁14,
trace
piedi
grid
contrat
▁LE
klet
reviewed
elogi
▁pea
▁negle
yer
▁echo
rollo
ima
cura
▁educa
▁Stand
isma
▁observ
ij
generic
ell
human
gar
flights
▁installations
▁articol
gnato
▁incap
▁east
sugu
ovat
far
▁svar
▁ident
▁Batt
quarant
lucid
Università
▁accent
▁Ankara
uthorization
operative
harry
▁Spa
▁Ey
segui
izz
ane
▁intimida
▁finger
▁dici
▁Rap
▁Mc
houses
feat
▁specif
▁God
▁Britt
work
EFT
▁revo
▁burn
▁Newton
▁suit
vini
occhio
ferred
capacit
Ann
(2)
▁Gal
theory
riving
rit
providers
local
ismi
gerald
driven
azzett
▁books
▁England
▁Cor
idro
board
▁Te
gging
chief
▁fier
▁Ve
▁Robert
produ
periodic
fire
abilir
▁quin
▁soc
shenko
▁ignoran
▁gesto
ongi
ker
everyday
ach
▁moni
«
oliva
commod
▁Forum
▁44
rafat
dano
breaking
banco
(90)
▁tape
▁muro
▁Ordin
pansion
eldon
▁emigra
▁disco
▁2005.
visas
uden
mano
DT
▁refra
▁gras
▁carb
▁pesa
▁evento
▁Ung
om
contents
▁Christmas
▁secur
▁dissi
turo
ontinuous
onese
cene
carica
▁musulman
▁Questions
tematiche
fall
▁visibil
▁presen
▁location
scere
knew
gliano
ware
rina
Aggiung
▁seed
▁dr
vy
ismiss
induce
distribu
cosmetic
bts
appoint
▁Kirk
mere
cidental
autostrad
after
▁caro
▁Fat
regional
propor
politic
nessa
govina
▁wave
solver
rang
cut
▁svi
▁colour
seeker
admission
▁Dep
wo
nordic
gni
entano
ard
▁verific
▁tena
▁Asian
psicologi
ngue
LT
▁Islam
▁Arc
ering
bes
▁scene
▁creati
▁Her
prestigi
increment
errors
▁Ir
some
recycling
▁Autor
justifi
availability
▁rhe
▁manip
▁16,
isure
▁Federation
▁2001.
sage
orato
essive
▁Sport
▁Qu
precedente
fu
dications
▁investit
▁Mill
ancing
▁blu
pugna
lli
harsh
generated
frequenz
▁score
▁preve
▁EURO
lemn
▁purchas
▁XXI
organ
igarette
▁usa
▁Professor
ranian
egni
boda
dato
▁respir
▁popul
▁centur
servi
artin
▁hat
▁Var
vocati
press
▁fell
▁Za
▁Merc
vable
cq
chny
▁Afghan
ctions
oleva
ectare
▁online
▁consumi
▁Luka
▁Andre
uni
taglio
▁tolera
▁ruin
▁metodologi
▁certificat
▁benzin
▁PH
zzo
erli
chie
▁skill
structured
deploy
▁stupid
▁compart
stas
crit
Airbus
▁Kohl
▁235
zando
isso
▁Dich
stabil
serving
scriv
▁lod
▁Bos
▁17,
eira
Sopra
Moscow
▁inclin
▁brev
▁(3)
suspension
iter
aternity
art
▁spi
▁18,
oro
foods
West
▁Past
▁Marin
libri
alismo
▁patria
▁motive
▁Helm
▁Aid
wful
izia
ciel
▁cho
▁HIV
▁140
portion
capitalist
bbia
asing
Politica
▁cord
▁Black
▁54
▁2003.
landia
cesso
aiming
ince
fur
▁precede
▁clothing
try
papers
▁intensit
▁anima
rica
back
aeroporto
▁oli
▁impress
▁Teng
lands
ecutor
▁cow
▁Fred
▁86
▁149
ll
▁Libi
cards
▁distant
▁degrad
▁bold
▁wood
servant
ran
minati
arte
Criminal
▁Mosc
▁Miss
omprehensi
91)
▁senior
▁exceeded
▁Turner
tal
mixed
izzant
▁Argentina
tos
cra
▁switch
▁doors
▁Guan
vez
mar
largo
▁repair
▁inca
▁breath
mai
dvantages
Johannesburg
▁sinteti
▁Att
lemma
guardian
ensitivity
▁apri
▁Bu
incere
▁118
torino
intelligence
edness
bate
▁retor
▁preserv
▁nuo
▁impoten
▁attribut
mens
blocked
▁paradox
▁aha
▁Leon
▁20,
timid
male
held
Esta
▁cultiv
▁Natura
ughes
occa
ndamento
friendly
▁portu
▁educativ
▁Hor
cina
SSR
▁sorti
▁loan
▁47
water
tuta
iled
▁passion
▁PES
fuga
▁celebrat
▁USD
persever
ossession
call
associate
▁perdon
▁generat
▁econ
▁blue
▁Mag
space
processed
euvel
▁SIS
rice
fluc
3/8
▁ven
▁clo
▁Messi
osur
aring
▁foll
teoria
rough
qu
marking
ich
cheaper
longs
▁vivi
▁scrap
▁Mexico
▁Church
urge
▁sacr
▁rose
▁platform
▁balt
vali
tuto
tensions
combine
individu
cenia
▁cro
▁components
zem
rence
grade
edu
▁premis
▁pensi
quina
ordin
Cor
▁ger
riper
mane
▁servit
▁procur
▁privileg
handled
wonderful
reward
▁russi
▁rain
▁incit
▁Three
tinente
oslav
▁precipita
▁Did
neck
fats
departure
Inter
▁siti
▁mainstream
▁apre
▁Australia
mplare
Technical
▁spare
ilometri
autonomo
▁reun
▁database
ucht
sten
mm
engo
dated
cale
attore
atastrophe
9
▁ratio
▁privi
▁gh
segu
accumul
acche
▁replica
▁hormon
▁heat
▁habit
production
omogene
cycle
arrest
analyses
Quarto
▁Wie
▁Saudi
nego
▁wild
▁Paul
usuf
inspired
gher
▁tabell
▁stoc
▁perde
operativa
nar
▁torn
▁neoliberal
▁magnific
▁conseg
wood
asbest
Southern
▁52
▁z
▁trapp
▁site
▁priori
▁exag
▁cao
nino
berg
Norway
▁poses
▁penetra
▁Multi
▁Len
▁78
arily
Eviden
▁season
▁distan
proprietar
oalition
lev
DEM
4-0
▁manche
ika
align
Vote
▁stro
▁Services
zata
dice
days
correction
▁includ
▁diss
servatorio
ney
lung
fetto
duration
▁pila
rias
offensive
▁numeri
▁Analog
litt
▁spiral
▁flight
▁absorb
buying
South
▁dolor
▁IND
trent
serv
SEN
owned
enberg
▁mori
▁bri
irty
ils
adi
Mercat
▁output
ugi
subscribe
rivers
mutil
arse
aratteristic
José
▁provok
▁horizontal
tuan
nette
ference
▁sv
▁ante
▁PRO
▁Federa
maybe
life
▁politi
▁infe
▁1-3
rogat
gr
benchmark
▁transmit
▁optimisti
▁mod
mention
ft
cells
▁Muss
isdom
2.
▁publish
▁impart
▁casual
▁bare
▁Ky
sense
▁horse
▁Vivi
thoughts
orbit
gola
gler
eeds
annoy
▁convenient
Norveg
▁Nobel
crew
casse
EMS
▁deput
sur
etter
▁lett
▁invalid
▁Cerv
udici
residents
correct
7/8
▁Napoli
luc
law
fen
evolve
erlusconi
CIS
▁magistrat
▁cinema
▁pirat
head
clon
2-2
▁mobilis
▁2012
informatica
feri
breast
▁copy
▁Venezuela
▁Custom
▁13.
see
programming
har
anyway
OS
Medina
▁Document
▁Bo
▁46
nishing
lle
aliqu
▁vacan
▁tens
▁sal
▁risa
▁apr
nthusiast
edi
arme
▁strik
▁stall
▁belli
▁Barbar
speed
mark
luso
▁Corb
▁93
voices
tasi
rust
pita
pagg
imbo
▁theme
▁X
poli
90
▁replac
▁cen
▁350
rvata
ova
ez
ebre
▁communi
▁Gas
▁19,
ziano
ios
ges
▁Seven
atorium
▁veterinar
▁mot
▁mille
▁certifica
tur
raud
oriented
dit
▁medi
tende
pricing
Millennium
▁nero
▁lent
ssociazione
ologie
▁input
▁SW
nounced
dire
cas
assen
▁wel
▁Rath
▁Much
lived
liable
cial
braccia
▁muni
▁merce
▁cha
▁bandi
olta
nished
ndirizzo
asto
▁engineering
▁Colomb
stava
nu
mines
IMF
▁Ni
▁Boni
putation
pire
▁description
▁Dr
▁Day
▁41
radici
cari
SP
▁girls
▁educat
▁Tri
.12.19
▁psychologi
▁Cu
orari
continuity
▁rep
▁pura
▁Natal
“
xposure
ployment
gainst
fermer
citate
ciati
api
▁infantil
▁Im
viewed
tar
packaging
olino
chamber
▁verdi
structive
rant
▁Present
▁Ny
ores
mico
lut
▁ud
▁ga
pò
permission
▁oscur
▁machine
▁divulga
▁76
omen
izi
▁dem
▁Entra
summary
passe
▁map
▁57
surat
spettacol
prising
nal
eth
▁transmission
▁storm
▁norm
▁Stalin
security
rett
eggiato
▁dy
▁copyright
▁career
▁College
▁12.
pers
liche
cution
ap
▁select
▁complica
▁Moor
▁Char
ziente
institute
ciso
ET
▁mala
▁Small
think
produc
ja
absent
▁ecologi
▁celebra
▁TV
leasant
economics
corrent
boats
▁sportiv
kov
erete
▁profil
▁exerci
april
FAO
▁summar
interrupt
abide
Esprit
▁cyn
zoo
rimu
born
bed
▁medica
▁legg
▁discussi
▁Res
raz
ometric
cultural
attes
▁Stockholm
▁Gatt
strazione
lem
NP
ommunaut
mati
manga
errand
▁sest
▁revers
▁ham
olete
▁grip
▁bitter
▁FOR
ories
ography
arm
▁spiritual
▁mostr
▁Confi
cinqu
▁overl
ida
▁wall
▁spesi
▁Pais
▁Natali
▁169
lander
itori
Prestige
▁fees
▁LIFE
remit
rac
opero
old
lacks
iality
break
▁passage
▁annul
ssaggi
rove
ote
guis
eve
strug
hreb
azzar
astica
▁responde
▁church
▁accommodat
▁Quel
▁Franco
mentale
laiming
abbigliamento
▁volatil
▁vill
▁poch
▁pati
▁Stuttgart
▁Sim
▁Kla
▁Goe
▁Chamb
▁79
traveller
lieve
ledge
atitude
▁rect
▁Grand
vers
referral
mburs
emper
eco
▁kilometr
▁habitat
▁Kurd
reason
curta
▁formation
▁Christo
▁Bow
leva
addresses
▁dist
affett
Z
Ru
▁sito
▁madri
▁discret
▁Wales
▁RELA
▁Henry
tim
tali
eparation
▁user
▁irrit
▁diplom
▁contesta
▁comma
▁avail
razza
Confedera
▁slave
▁ease
▁Order
▁IMP
▁6.
vande
sided
orie
illan
checked
▁indic
▁esis
▁bella
vin
Nothing
▁·
▁silent
▁preg
submission
racial
ppo
class
brava
Watson
▁Γ
▁foc
▁Speaker
ospeda
mila
franca
dging
decentraliz
▁sha
▁Ca
▁Boy
ún
taforma
mossa
ilio
Autorit
▁civi
▁bors
Ministry
▁destination
▁alia
modal
logistic
itudini
feso
espos
ama
2/
▁weigh
spontane
ogen
atorie
▁laboratori
▁hot
▁51
iana
ball
▁Ke
▁Galle
indice
iendo
▁manu
▁invent
▁Tel
ndole
generation
fonder
consulting
Recommendation
▁tone
▁potent
▁mut
▁ingredient
▁eat
▁Stewart
▁Maurit
▁Dove
▁25,
vento
trans
toys
shoulder
iveness
▁raff
▁induc
▁fug
▁stil
▁install
▁commun
▁Pack
▁17.
enrich
cur
convenient
confused
▁relax
▁provincia
▁custod
streets
replacement
ai
▁troll
▁Fle
▁Dell
▁7.
US
Again
▁sape
▁Thanks
zing
rotective
hibition
dimensions
▁vota
▁pages
▁autoriz
▁Programma
®
▁sele
▁love
ville
orry
dictions
▁student
▁spot
▁prob
▁Sua
▁Me
sorge
deficien
continua
clusivo
▁reorganiz
▁relevan
▁Rio
issen
eves
▁doubl
▁como
▁ambas
dwell
crease
cor
cabo
▁retail
▁minimal
▁Color
ibility
fogli
credit
▁video
▁TA
▁87
pin
grain
entino
▁volo
▁tip
zato
sfo
cismo
5)
▁satellit
▁polemi
▁bel
tle
piac
imp
▁Coun
¡
sulti
schmidt
ret
quen
militar
erup
conception
▁nice
▁mun
▁fisi
omolog
▁salvat
▁Slovak
tested
success
▁wrote
▁Tak
vince
unga
ionate
cielo
(86)
▁tribut
▁sinto
▁obs
qualitat
idio
diversifica
▁preferenc
▁deg
▁Nu
uct
pu
▁scen
▁Mitt
▁Kara
▁Dalla
teria
entity
▁deport
▁bias
▁Appro
torne
sor
peranti
lining
ka
▁weekend
▁turisti
▁mono
transportation
stre
quarter
apparat
MI
Ben
▁totalitar
▁boy
▁Milan
▁72
uous
muni
gioi
concert
artistic
▁Peace
▁Ch
▁Alto
grace
dispositiv
anne
▁devi
▁Peters
▁Mur
zano
lire
lino
fetti
conservative
▁federa
overseas
hub
Sharon
▁music
▁Er
▁CIA
saved
ming
empre
atives
ago
Pranc
▁cuba
▁Taylor
▁Dic
viol
franch
ford
edge
(85)
▁marca
▁customers
poison
llo
heed
▁moderne
pendi
lasci
favor
▁nera
▁Guer
ó
limitat
crates
canton
▁dife
▁Marí
smug
lang
grammes
bottle
Israel
▁specializ
▁scia
▁refin
▁gravid
▁Segu
á
offer
lega
fficiency
equipped
▁remedi
▁len
▁Air
voluzion
ube
mista
▁stru
▁Simpson
▁Land
modo
landa
estro
economist
complete
buso
assistant
abort
Governo
▁estran
▁domain
▁Gar
plendid
mante
bloc
Sud
▁stipendi
▁reserved
▁dilu
▁colla
▁Dio
tactic
rescue
eggian
dania
LIN
▁quiet
par
pan
fici
basti
FP
▁weather
▁hau
theoreti
nosi
exemplar
announce
ELLE
3-2
▁pride
▁holiday
▁disso
▁Seal
turn
folla
▁val
▁steril
▁contamin
▁Blumen
lenty
fasi
Re
▁Rob
▁Priz
irmi
harvest
cce
afghan
▁grad
▁Turn
▁Next
▁Equ
▁Area
tiere
sertion
ohn
ining
cidi
NR
1984
▁publicit
▁corona
▁ECO
diagnosi
CM
▁memory
sister
signals
sale
mir
hère
▁configura
▁Dom
ikan
Scott
▁divid
▁curios
▁Hopp
eleven
Sistema
▁teori
▁shut
▁indian
▁evit
▁autobus
utan
ordinari
eau
▁selected
▁Riba
▁Har
▁21,
ethic
▁diagnos
▁aqua
▁Thailand
▁Mann
vine
▁stav
▁origina
▁circula
▁cash
▁Zealand
▁74
onora
launch
esco
Sierra
Madeira
FIN
▁sonda
▁marina
▁Good
quity
person
magn
household
dread
pati
index
asso
K
torni
▁olimpi
redential
documentation
▁edition
▁alber
▁Giu
▁Cassa
onia
lective
erchi
▁prolong
▁adem
▁Cath
zino
usate
sori
locat
kou
egner
carbon
2001)
▁Tant
utilit
itari
hardt
▁fatt
screening
res
89
▁inaugura
records
imply
cin
Spencer
▁pred
▁immobili
▁file
▁expir
▁Andrew
tract
sions
ogene
kos
clock
▁stream
▁salt
▁gentil
▁cul
▁Reh
warming
ieties
done
▁Milano
▁Cry
gged
Catholic
86
▁scap
▁64
variabil
▁supervis
▁sano
▁Singapore
▁Executive
▁Des
winner
marc
harmon
dispositivo
▁urg
▁transformation
▁priorita
▁fum
▁evolution
▁diesel
▁Mondo
▁Administration
▁53
▁137
rendiment
Very
▁grati
▁bando
▁Sare
▁Key
▁Hammer
▁Face
▁Byr
utant
ucce
sustain
▁reclam
▁procura
▁liste
tables
▁figur
▁favorite
▁circum
▁Merkel
▁Inc
▁Antonio
tells
satta
row
ornalista
nxiet
lude
liberalism
anda
▁credits
payment
passionat
mici
diale
▁spor
▁splend
▁García
▁AP
versen
deling
▁tard
▁quadri
▁harmoni
▁frustr
▁63
sto
entrepreneurs
▁sod
▁dissen
terrane
qualifica
parse
hur
cottish
contest
caso
TEN
▁proie
▁hydro
▁grap
▁Channel
smoke
nese
ins
elo
crimin
alive
▁instructions
del
arious
amini
▁bid
▁TI
▁Deb
urgia
rezzi
loud
industrial
▁mouth
▁entri
struct
compound
URS
▁prive
▁coup
usci
stica
backs
Harbour
▁merc
▁VAN
▁22,
▁110
vista
vet
earning
dorf
burg
▁wear
▁flut
▁alien
▁Schu
▁RE
war
stadt
rek
propri
heat
Wal
1985
▁surface
▁pervers
▁insert
thetic
padron
deleted
Burundi
▁trigger
▁seminar
▁ingles
▁benefic
▁66
schi
rov
marriage
▁inciden
▁Tre
▁Divers
▁62
flying
embre
danne
unha
rominent
lessness
cole
ances
PCP
(1)
▁patologi
▁Pren
▁Concer
volunteer
through
flags
▁haven
▁Viss
▁Contra
urious
isten
imagination
cini
▁smo
▁seren
▁Sunday
tinu
pra
ompatibility
Everything
▁visite
▁street
▁compara
part
para
imper
act
▁utopi
▁Orto
▁Cornel
▁71
tisi
pped
feet
air
EC
▁filo
▁dinam
▁Finanz
▁89
wan
note
lice
isrupt
▁Opp
▁Lul
▁01
recruitment
identification
contributor
▁energi
▁comprehen
▁artisti
▁anterior
▁67
tabile
native
dress
dominant
Yemen
Movement
grad
falsa
boom
▁master
▁Mos
nir
admi
▁posterior
▁moto
▁merg
▁Latina
▁Games
ès
tele
ride
rained
faut
▁infl
▁frame
▁96
sci
rista
donation
cise
PIM
▁spun
▁Circ
▁84
uscit
orro
mono
alibi
acente
ILO
ural
sacra
fuso
Ukrainian
▁parec
▁alert
sidente
etton
elfast
aglie
▁chocolate
▁Smith
urbano
roll
orze
notification
▁strategi
▁sessi
▁resident
▁reception
▁permet
▁italian
▁formule
▁beg
▁14.
takeholder
realism
georgi
duction
(84)
▁Progress
respectively
president
peto
messages
inen
dini
▁Pfe
▁Business
pato
montar
icot
eripher
Le
▁identificat
▁coloni
▁Ter
nautica
torie
stress
giochi
classes
bbel
GA
▁terminal
▁prostitut
▁larg
trion
ko
have
achev
▁instruct
▁domin
nt
mmer
forward
cie
certification
EP
▁rush
▁handle
unknown
tional
moto
itis
Niels
▁mea
▁fat
▁Related
mos
Secretari
▁k
▁erro
▁23,
▁10.
title
kers
ercury
ades
Uzbekistan
▁pio
▁admis
▁Tol
▁30,
ttr
spectrum
polo
look
activist
Elliot
▁tuna
▁schema
▁preco
▁factory
▁desp
mediato
forming
Scandinavia
OLA
▁toler
▁homosexual
▁compil
ured
Fortuna
▁carrie
▁School
▁Pino
▁Oost
training
emmin
Attend
▁sine
▁fabric
▁King
▁900
professionals
producent
prime
ject
cili
audi
▁venne
▁potenti
▁pool
▁pola
▁panic
▁Lega
▁160
moderno
ingredients
excellence
eseen
abit
Environmental
Caribbean
81
▁prea
▁alba
▁Cal
sono
gra
1983
▁punt
▁Galicia
plication
orri
▁spell
▁leva
▁Vre
▁Cara
umili
made
Armenian
85
▁linear
▁blat
▁assimil
▁CF
▁Beth
shops
bal
TAC
▁za
▁sen
ller
emozion
coton
▁tied
▁pattern
partir
offset
div
▁rank
▁mutat
▁exp
▁Affi
▁99
corrido
birds
▁cioc
lending
fulness
demoli
agge
▁illumina
▁Groen
▁Bey
tradition
lim
(3)
urbani
ipoti
evoca
▁reg
▁judicia
▁intim
▁Tyr
▁Rhin
▁Laos
▁Conto
gegner
cens
▁horror
▁City
group
Planning
▁robust
▁prod
▁lucr
▁fec
▁copia
ulan
pesi
▁prover
▁cree
té
ttu
peri
ISLA
▁pene
▁loop
▁discuti
▁beautiful
▁Yu
▁Haf
velli
ters
riga
paid
osso
ooked
legi
cumb
1987
▁seminari
▁Proba
tán
itate
believ
Basta
▁brain
▁baby
▁Pes
▁Nazi
▁Department
▁Cross
▁1967
timber
nnual
ceive
1°
▁tecn
▁elabor
▁district
▁ber
ume
tamani
russe
raccont
efe
chose
cesse
cchier
EPC
▁execut
▁energ
▁Castro
tarda
second
qua
otre
▁river
▁Stav
▁Nero
▁Hitler
ooper
enhanc
belo
86/
▁Geo
▁Fi
teams
onvenience
lusi
innen
inali
cotton
Presidenti
▁pragmat
▁nutrition
▁mat
▁farin
▁LEG
▁Hah
▁Göteborg
tanker
powder
ohen
integration
3-5
▁litr
▁invad
▁Stevens
▁Kenya
▁George
lighten
icidio
dura
▁voc
▁flora
▁450
tia
hier
An
▁Serb
▁Gil
routine
hygiene
distribution
dicate
▁boat
▁Voi
▁Silva
▁Eg
tsis
sportive
roport
nasce
managers
advocat
AZIONE
▁dramat
▁Garcia
▁Cy
▁Bus
allot
▁versi
▁department
▁compo
simit
rozen
nari
freeze
ature
EX
▁latino
▁employee
▁Haug
▁59
sitate
nomination
mit
incredible
▁metal
7)
▁ARTI
stria
ptical
month
lifting
ATA
▁PER
▁Mé
▁24,
sick
ratio
nso
name
dolore
colata
9)
▁realist
▁player
▁panel
▁padr
▁duplica
▁amma
▁CON
▁Baro
sminu
itation
eenth
czo
cigarettes
Ze
▁temperature
▁command
▁Times
▁SE
▁Malaysia
▁Kui
urgi
reste
kamp
chaos
brillant
arrival
aga
aci
1982
▁delivery
▁15.
iutat
▁pub
▁fe
▁dé
▁Mour
grosse
gre
CDU
0/90
▁kill
▁colore
▁Rad
▁68
roles
militant
erse
connections
cell
armonia
Kashmir
Iceland
1986
▁69
usata
calza
▁vento
▁permis
▁escal
lud
ignifica
efst
easing
PROV
▁27,
▁2013.
patente
hich
bel
TING
▁perturb
▁oss
▁Colleg
rated
gnano
cited
▁suite
▁salar
▁ellen
▁Wyn
parti
holes
elig
▁innovations
▁craft
sis
ranium
division
cott
Together
Numero
▁exclu
▁desper
▁Independent
perate
alcool
IFT
Be
▁gigant
▁gara
trofi
quinta
ntities
mbolo
▁rem
▁passer
▁mobili
▁Tor
▁16.
vident
rze
isations
focal
entleman
characteristic
MUS
▁intensifi
▁dose
▁Vien
▁Lek
▁Corn
▁Burk
reativity
linqu
coop
bond
ang
▁vizi
▁trip
▁matura
▁Mus
▁Arabia
zante
lou
SCH
▁teach
▁mes
▁mangi
▁expedi
▁dynami
▁cin
stage
ropped
confirmation
ben
▁113
trader
kening
development
commenc
branches
No
▁monument
▁custodi
visag
vieti
ulent
specification
saw
colta
Particular
MISSION
▁aggiu
▁8.
strumental
quent
numeros
morto
lora
▁presu
▁pocket
▁indigna
▁drift
▁83
▁180
▁11.
tissimo
hidden
▁web
▁moderni
▁indign
▁Up
▁Pie
cambiar
▁sep
▁offen
▁obscur
▁measur
▁dark
▁conse
rif
enice
drain
datta
ECHO
▁investiga
▁intensif
▁falsifi
▁basse
sciences
rotte
nel
campion
IRA
▁drag
▁divert
▁distributor
▁assistent
▁Plen
processing
arriv
TOM
TED
▁fl
▁discu
▁confort
upper
leap
fare
enomena
Progressive
▁metri
▁hur
▁Cott
▁Conta
▁Communication
rigen
nce
▁synerg
▁rape
▁consta
▁Tal
vede
risco
lock
llness
action
*
▁solar
▁contractu
▁98
▁1960
winning
outlook
cinto
ADER
▁tito
▁regress
▁obligato
▁nato
▁eros
▁Contr
ubica
portant
nati
ansia
vige
vaccination
token
ponte
erusalem
ergence
Uganda
Panama
▁operator
▁fee
▁Post
mass
geographic
▁kg
▁armen
▁Las
▁Appar
void
elanda
ERAS
▁imprim
ypri
neva
cos
Maritim
2-10
▁luck
▁Quint
▁73
viation
rabbi
points
lla
erer
atrici
Statut
Eg
▁tent
▁square
▁Success
▁Ster
▁MAR
▁Ko
▁Dala
▁Capo
ogenic
emigrant
▁precip
▁Rand
▁Consult
parts
mate
iane
fugi
anomali
▁presid
▁Jerusalem
▁Cerr
▁Anti
trade
timing
squadr
oci
atastroph
abilita
▁signat
▁morta
▁gua
tage
eleziona
cri
congress
bonds
archi
Eritre
♦
▁intensiv
Ì
vati
ondo
inden
hof
Leone
▁update
▁scal
▁morali
▁masse
▁gui
▁Gol
▁Commissi
▁91
wish
inis
eating
REG
J
▁dirige
▁bulgar
▁bath
arrington
Perspective
▁corti
▁Ry
▁Management
stabilis
rando
improve
▁conquist
▁annet
▁Vigo
▁Lamb
▁26,
ël
tina
olt
list
ident
ariat
▁fun
▁Rif
▁Gut
▁Fil
▁Fa
▁Esp
minister
ivilization
gando
Article
9%
1985)
▁transpo
▁profile
▁Cors
visitors
ventura
vanguardi
suppress
presentan
Korean
Equal
▁prostitu
▁nata
▁flat
▁Colom
urne
impen
dica
attent
argin
Azerbaijan
('
▁stone
▁maxim
ving
splet
ros
archivi
urbana
resolve
nationalist
cavall
▁segment
rest
osing
orta
mittent
happi
four
forme
core
▁tribuna
▁serbi
▁reclama
▁explore
▁dubi
▁Mer
▁Basic
▁129
ñe
shore
owed
abbo
East
1981
▁vertical
▁excit
▁defect
▁Rod
▁League
▁INTER
▁Bla
ufrag
tection
new
modify
fa
dagar
1984)
00
▁musica
▁Swiss
▁260
question
oordinator
liberal
icide
We
▁poh
▁flu
▁Malm
▁Kyr
▁1969
kis
interpell
EDF
▁29,
nstallazione
mutat
mor
certificates
12%
▁tempor
▁devices
▁altera
▁Mor
▁Lu
yard
rgico
pretty
lier
bread
belli
architett
▁temp
▁Persi
▁Oslo
▁Import
▁20.
sanitari
cul
clubs
Measure
▁padre
▁Indu
▁Goal
trina
fiche
Barry
▁sommer
▁Support
▁Ram
▁1971
party
olla
igen
gida
gas
ervizio
ecently
defender
Plat
▁sand
▁radica
▁paradis
▁novel
▁bor
▁Reno
▁Date
▁1968
star
posed
parameters
operation
istruzion
ezzi
adults
abb
▁pronunci
▁insol
▁Specific
insi
▁securit
▁insur
▁LA
populated
ndez
dimension
Uruguay
▁nasc
▁ironi
▁infinit
▁eg
▁Isra
▁Friedrich
vari
ttico
ifiche
icious
bale
SED
▁talent
▁recruit
▁navigation
▁manual
▁conso
▁compos
▁Bay
▁1950
ude
tello
pian
give
ffe
clusive
▁subi
▁squa
▁Croc
▁320
uova
fis
SIT
▁rel
▁prega
▁originali
▁crei
prima
ounding
landscape
invitati
fra
codes
abban
▁evolu
▁contr
▁Water
▁Alexander
zionari
solu
lent
igno
fortune
firme
artists
▁manager
▁machines
▁SOL
▁Boot
▁2)
uzzi
limi
bulk
assassin
Conform
▁fili
▁felicit
publications
llusion
licita
dependency
counting
cchetti
capitalism
GF
▁dure
▁Loma
▁Dima
▁Alp
servati
PLO
=
▁Φ
▁tune
▁Venezia
▁Maca
▁Jew
oslava
hrend
fal
arsenal
▁biologi
▁Raa
▁Gior
▁Gai
▁Compre
watching
versari
rosso
prize
nucleo
height
bur
RATE
OP
▁rehabilit
▁Seattle
▁Pol
▁81
uria
torna
coverage
Morocc
▁telefoni
▁republic
▁mem
▁ju
▁Steel
trees
corren
▁temporal
▁extract
▁arena
template
rou
ligence
ishing
-2006
▁corp
▁Roberts
▁61
▁18.
signation
pper
lina
istered
iaio
empire
▁invert
▁Valencia
▁Tokyo
▁103
versi
ruire
codic
UTA
▁winter
▁west
▁sfer
▁sanguin
▁contagi
ots
orci
nitore
MANN
▁rega
▁guerr
▁elite
value
universit
finance
egna
GSP
▁McCa
▁Basti
zono
dors
coins
bi
Honduras
DAY
▁decad
▁alban
▁Drug
▁Dia
▁36,
▁1)
ultilingual
onte
dust
benef
ational
asco
abundan
▁inst
▁cliente
▁cami
▁Sad
▁Pf
test
pur
iglie
▁interval
▁Fac
nazist
esca
affi
▁fito
▁antisemit
verde
varies
ski
ometimes
mogli
dora
RIT
▁magic
▁conte
▁compri
▁camera
▁alte
▁Continu
ι
sista
rente
lux
izzi
desse
ZIONI
ROM
▁teme
▁telefon
▁shop
inte
illon
friendship
dict
WHO
Hoffman
1987)
▁testimon
▁spic
▁multiple
▁minera
▁Morgan
pieces
minds
member
ither
copri
ager
acquisition
▁pr
▁Jordan
prover
ipo
hunting
ebbe
accredit
▁vaga
▁referend
▁paci
▁mila
▁TO
▁Beijing
still
named
flou
emotional
acea
Miranda
▁recei
▁probl
▁pl
▁inspiration
▁gratuit
▁favorit
▁engineer
▁circuit
▁Hoff
zz
scott
illus
gret
▁sun
▁suicid
▁perce
▁miles
▁fly
▁Was
▁Lent
▁9.
trains
REPORT
▁fal
▁Montreal
vaste
passion
hour
fo
compass
Evans
▁agra
▁PROP
▁Foc
▁82
▁19.
entusiast
darle
▁symptom
▁pie
▁dog
▁Need
▁Lucas
▁Gio
zor
fortun
discuti
cargo
▁sala
▁pet
▁liter
▁fost
▁branch
▁austral
▁Bali
repressi
prises
iver
dad
activity
77
▁plut
▁bru
▁ana
▁amaz
quat
ours
egemon
Fuchs
▁perma
▁Tempo
▁Casa
▁Aleman
▁750
À
cantil
architettura
▁pagan
▁conveni
▁Rin
▁138
service
ringe
happy
amba
▁snel
▁meal
▁enem
▁Training
url
patriot
onthly
hy
▁prema
▁gene
▁drac
▁dogma
▁classified
▁Turk
▁Process
ötter
kha
inding
▁mera
▁comunica
▁Take
▁Nelson
▁Mega
▁DM
uillet
ngu
food
▁specialis
▁meta
▁emotion
▁beat
▁Mul
whisky
verification
spie
posito
mp
finita
ery
attrib
atti
Es
1989
▁mount
▁lever
▁fed
▁cite
▁Null
▁Moz
zel
spice
sident
oppie
het
cious
agazzi
acanze
Senegal
FES
▁termin
▁mandar
▁humili
▁flo
▁Speak
▁Gradi
▁28,
lui
fuge
OLO
2-3
▁techno
▁oper
▁odd
▁Johnson
▁Basil
▁170
tendent
mezz
metro
ira
cortes
LP
▁sani
▁fla
▁az
versible
offensiv
general
cked
bello
OIL
▁ride
▁gold
▁Society
territori
sistem
nou
ligen
ged
fiori
Verification
Scientific
▁qualif
▁facili
▁eleg
▁Simon
ï
tonne
management
endimento
CR
80%
▁nano
▁mole
▁Matu
▁Maat
updated
laugh
evad
ancient
aliban
▁tumor
▁driver
▁Hans
sumo
oscill
costruzion
angolo
López
Craw
▁stretch
▁ball
▁admin
▁Vars
▁Rainbow
ösch
suas
sque
mobili
lenta
hearts
daki
bles
arten
▁beli
▁Ru
▁Road
▁Pir
▁128
ud
polla
horizon
enburg
avi
TION
Cardiff
▁suffi
▁comprar
▁bla
▁ambassad
▁Sam
▁IL
▁Anno
versions
tinio
spedit
sloven
slovakia
normal
mafia
inos
Canadian
▁converti
▁Vale
tains
pregnant
nie
Competition
▁Trop
▁Pru
▁Hum
▁94
▁2011.
trono
sin
lotte
imme
gian
get
from
eased
dafi
arriage
UNIT
Climate
35%
▁£
▁rang
▁pandemi
▁paint
▁inven
▁detect
▁Duma
pubbli
nice
mitte
graduate
damente
celer
atorio
aldi
▁sink
▁González
▁Brenn
zati
stigmat
scimento
mu
etano
colazione
ciente
OMS
Farmer
ESF
▁vine
▁sec
▁sac
▁certificate
▁belgi
▁Propo
▁203
dating
cient
cep
brave
Gender
▁visibilit
▁tendenci
▁sabot
▁esplor
▁Buiten
ures
osity
mercial
ith
iglio
hler
▁bol
rious
patterns
incidenc
aisal
Ro
Pro
▁SPD
▁Floren
▁Brit
▁125
imbar
dub
cheggi
▁rime
▁resign
▁precio
▁posi
▁domicili
▁champion
▁banda
▁Salon
▁Harris
▁Colle
versati
ulas
ttling
ppi
occia
irlo
federal
divider
bu
bricant
amore
TIVE
Russia
Membership
▁prim
▁indonesia
▁Griff
▁Author
husband
holidays
Arrangement
▁vain
▁acceler
▁Walter
▁Schön
▁Lam
▁Hur
▁48,
relevant
piaci
loading
indi
incredibl
Indonesia
▁rebel
▁pseudo
▁mens
▁coach
▁alco
▁Cra
▁Blok
▁175
ramente
nate
▁consci
▁97
udo
reserve
lgan
▁ses
▁dedi
▁Conse
solet
ritable
raffin
ologi
hmer
doctrin
▁cron
▁bombe
▁Pole
▁1957
uber
solvent
perati
magnetic
logo
blocks
attendance
abbin
▁É
▁tiro
▁dos
▁Wolf
▁Gome
quartier
minder
imir
bolla
LEO
▁taste
▁tar
▁spons
▁motiva
▁films
▁box
▁Fischer
quisi
powered
idi
dicas
▁Sach
▁Länder
▁Bett
oxin
lvarez
inn
heating
cture
Con
2)
▁corrupt
▁copi
▁Out
▁Bill
unci
onnell
guer
evi
cat
apping
append
(83)
▁pornografi
▁college
utati
sistema
electronics
conscient
acuum
VIT
▁sie
▁pata
▁gallery
▁Chal
themes
oil
map
kämp
efs
catur
attr
GALI
5/8
▁disput
▁Gross
▁Franz
voke
nitrat
definir
▁labor
▁Sch
▁SOC
▁Don
ussy
mouth
enzi
duct
Council
▁stam
▁centra
▁2050
vate
tissima
idla
barga
98)
▁slov
▁pra
▁optim
▁Romano
ü
selt
puro
pioneer
fertiliz
anna
ER
1)
▁calendar
onata
iquet
infection
etud
^
▁manipulat
▁laud
▁influen
▁elastic
▁Young
satte
pass
ountries
itti
big
altar
79
1988)
▁ole
▁esime
▁Dij
▁Alzheimer
vor
verton
prend
inst
fensiva
Bueno
Bombard
▁infer
▁Qua
stand
rific
nsomma
literac
Something
ß
vot
piet
packages
lored
essari
ats
▁pit
▁PVC
▁Albert
pelli
izzatore
amiche
CDI
▁Šp
▁NA
rev
reck
rcio
open
ip
introdu
avut
Administrative
▁ruo
▁inne
▁incar
▁cara
▁Gad
▁Forte
▁2015.
vinto
metres
inu
gulf
gression
filmen
▁sympathi
▁recur
▁piede
▁estrat
▁compra
▁Sav
▁Jack
▁Falk
▁Chad
uchel
ndering
favorite
actor
Written
FO
Bundestag
▁porn
▁kid
▁diplomat
▁aval
▁Cash
pes
▁Immun
tact
ounded
obi
lodge
grega
engagement
dentro
ciuta
▁tank
▁info
▁equipa
▁35,
ynthetic
wife
vuot
valuation
solare
shire
enchi
dus
celebrate
ECR
▁trick
▁sequ
▁repro
▁moderniz
▁Sus
▁Roman
▁MP
▁Ing
▁Cinc
lisi
fun
Kaliningrad
▁scan
▁netti
▁artifici
▁Sala
▁Pier
▁Mert
▁109
zens
uda
quista
omenica
olfo
ffordable
▁generaliz
▁emancip
▁computers
▁Too
▁Statement
▁Innovation
▁(4)
sacre
plete
ef
cette
ccata
Marques
CFC
Barz
▁fantastic
▁comunita
▁cart
systems
step
simon
pesta
pedale
keeper
ik
fitting
equit
ammoni
SMU
▁rever
▁possibil
▁monte
▁mali
▁divorc
▁ansio
explosion
Argentina
▁legitim
▁capri
organiz
ongo
nnar
escu
emia
barras
azzo
Arco
▁transaction
▁jug
rigio
market
elho
2-12
▁plane
▁lati
▁UC
slova
oimbra
noble
gari
bil
Tony
Marten
▁sistemati
▁miner
▁cell
▁Staff
▁Goth
▁Chiar
▁31,
valu
tial
riding
printed
onfidential
manipulation
licensing
TON
defini
ckman
Procedur
▁thereof
▁teacher
▁Tha
▁River
▁PAS
▁112
sure
interest
ham
first
CI
ATION
▁program
▁portfolio
▁Barb
largh
afore
addiction
▁quan
▁musical
▁motivation
▁fil
▁fica
▁diagnostic
▁Müller
▁MO
▁Effe
▁15.00
dolf
cost
avit
On
▁sofisti
▁Mø
▁Lig
▁Force
wipe
vida
vata
urish
lci
insuffi
grass
Non
▁mad
▁abo
▁Kro
rctic
presse
estens
Recent
Mozambique
▁jun
▁explosi
▁Vista
ttered
trazioni
knock
indent
idden
end
dimentica
consecutiv
bert
UC
Looking
Ambassador
95%
66
▁ruot
▁divor
▁Wal
▁Sand
▁Pint
▁Obama
▁Bad
▁Attra
▁Anton
▁105
pean
ovimento
mountains
lic
dom
asha
aming
▁entrepreneur
▁batteri
▁Situ
▁Herzegovina
▁Budapest
▁2012.
supreme
sel
ovre
lagh
inform
discord
cellular
TM
Premio
FAV
▁stir
▁resid
voli
cian
carri
Cairo
▁wit
▁prop
▁dito
pri
nnig
mari
east
▁screen
▁manufacturer
▁gall
▁architecture
▁Schwa
▁Dí
▁1945
liber
Claude
3-4
▁scol
▁log
▁lento
▁hypothe
▁Roger
▁Mei
vilupp
sina
iad
hristensen
etween
deux
ath
Bearing
82/
▁malin
▁files
▁diri
mio
matrimonio
intermediate
Flor
EUA
Caroline
▁carro
▁batterie
▁Trich
▁Star
▁Gold
turi
tas
pira
ossa
orka
iér
conti
alam
▁sponsor
▁installation
▁incomp
▁defin
▁cri
▁Zapat
▁Laure
▁Bor
▁32,
lach
gressiv
creator
chez
analfabet
1986)
▁turba
▁Mall
urban
system
medi
load
illot
dged
American
▁vest
▁tun
▁hierarch
▁distr
▁cinemato
▁Legg
▁Haar
▁Division
▁Baron
▁AL
sama
oca
labels
fast
emotiv
dele
LIM
▁severo
▁rami
▁internet
▁addict
▁Dir
▁Den
▁56,
simi
ifies
hne
closest
alba
Rwanda
▁permane
▁fuma
▁Problem
taine
saldo
proposition
issa
inherit
edici
avolo
▁voluntari
▁semin
▁propi
▁permanen
▁immun
▁accommodation
▁Han
that
gestor
genital
frequency
egi
catalogue
canti
▁pour
▁collabor
▁bro
▁Manchester
▁Haut
▁Falcon
ug
ttig
linken
influss
einen
MCA
▁glass
▁dispens
▁Tras
▁Nichol
▁Camp
tical
suicide
stones
planes
pio
nec
fected
critic
Television
▁yard
▁trimestr
▁registri
▁montan
▁grie
▁bioma
▁Company
torment
ths
manter
form
cima
assau
SEM
Monitoring
▁style
▁rinc
▁araba
▁Kill
▁1958
version
ttawa
terapeutic
siv
ologies
iazza
dron
caff
antis
Vietnamese
Tomorrow
▁soul
▁comfort
▁catal
▁Castell
▁Abu
sophis
landing
adica
TRIP
▁nati
▁natal
▁infi
▁Rotterdam
▁Geb
visi
sterling
reau
nomine
measurement
lignment
itude
interessa
inclusive
ight
helter
Various
VS
99)
10
▁nur
▁charg
▁Nepal
odds
interaction
holder
five
▁inspire
▁ince
▁deduc
▁Real
▁Holland
▁2,5
tech
strategi
spective
robabil
quio
icurezza
eric
chen
70
▁strip
▁mature
▁compro
▁Vital
▁Conti
▁115
tuar
lage
2-8
▁solv
▁magn
▁dom
▁Sara
▁Otto
▁25.
öder
vacu
patti
num
junta
fool
experimental
chronic
Monaco
▁utilis
▁elettro
▁cit
▁Zah
▁Vero
és
torsion
publishing
emblem
▁polar
▁patern
▁extens
▁addu
▁Mid
▁Este
vertir
unlimited
rossi
riumph
oppia
omassa
isto
determinat
attest
adness
adire
IMO
▁compa
urmese
structure
rian
render
ntrepreneurship
gana
arrett
.1988
▁zoo
▁tragi
▁perse
▁anomal
▁Lyn
cassa
cartel
SON
1988
1979
▁rota
▁eleva
▁coi
▁brand
▁21.
uter
silvi
prestige
irli
concei
codifica
cela
calma
accura
Combat
3-6
1989)
▁twin
▁impe
▁baga
▁Schmidt
▁33,
ttached
terren
tempera
oto
gann
cioso
Thessaloniki
▁sval
▁rapide
▁miliar
▁magaz
▁dividend
▁Monte
▁3)
tette
pils
mortalit
irobi
curo
coup
Draft
▁shot
▁escap
▁embo
▁assembl
▁Klaus
▁Dame
spectacular
proper
illustration
fieri
bita
45%
▁diet
▁Frank
▁Bau
tress
ssault
mond
fensive
erreira
cchini
Occup
▁vietnam
▁tatt
▁sheet
▁games
▁endur
▁drie
▁cum
▁McG
▁Forest
▁Ev
▁34,
▁1-4
sector
restant
creto
DOP
Advisor
1983)
▁tire
▁tin
▁spad
▁situ
▁edific
▁clinic
▁beer
▁Gib
site
seg
mali
lu
exhibition
distribute
ccessibility
,4%
▁42,
▁1.5
stedt
iuga
ensore
eminen
alamanca
Initiative
▁vil
▁viet
▁clam
▁Philippines
▁Nego
▁Life
▁Back
▁220
▁2-2
uff
splo
ifero
gy
grafica
gambling
Rule
COLO
▁pin
▁depart
▁aber
▁Spring
▁Sen
▁2014
levar
iochi
apena
FSE
▁sag
▁cool
▁consig
▁compila
▁agg
▁adulte
▁Wei
vocab
vasion
parable
erino
ase
▁pile
▁UNI
▁49,
visibility
vation
tili
orrow
isi
images
gie
DAP
▁pic
▁fila
▁deriv
▁bien
▁Schwe
▁Por
▁Ocean
▁Ja
▁Dispon
versal
tr
tives
ghetto
fendi
ckles
Precis
OMMUN
German
EUR
▁walk
▁sweet
▁pieni
▁mode
▁imagin
▁Marina
▁Ger
▁1965
venes
tecipa
irrig
elf
contractor
▁tare
▁sord
▁logo
▁Rab
static
sounds
luvia
existent
earned
ealed
cres
POL
▁lifestyle
▁autom
▁Lan
▁Edi
▁Category
uosa
soro
miracle
cation
3-7
▁suppl
▁narco
▁antic
▁Pis
▁Hat
▁Frag
▁Develop
▁Buch
odka
nspector
niat
lined
custom
brilliant
Gibraltar
▁till
▁spie
▁profess
▁adolescent
▁Science
▁Grad
▁Braun
icure
atte
acolo
PCB
▁resisten
▁parto
▁doping
▁desta
ues
tuck
ordinato
lump
lich
imma
▁nodo
▁alas
▁Tax
▁Istanbul
▁Früh
termin
scende
mune
morbid
▁neces
▁functional
▁RU
▁Matti
sharing
pirata
pausa
lynn
lion
itore
ginos
bella
▁slova
▁nale
▁XX
▁Williams
▁Siv
▁MEDIA
▁Berk
nes
dic
diametr
Mos
Boeing
▁poet
▁Ra
▁Karl
weg
qué
osta
itando
irker
ijs
ibel
gane
cleaner
."
▁tiran
▁segreg
▁sched
▁reci
▁hang
▁ghi
▁estra
▁controller
▁analys
▁Rü
▁Marco
▁Isol
wed
range
farm
eller
▁nomen
▁cela
unni
overnight
objects
mortgage
lizie
legacy
ianchi
giano
Leonardo
▁truc
▁temperatura
▁Sloveni
▁270
ucco
nisch
myth
hea
epidemi
▁verif
▁concur
▁challeng
volver
versat
ologico
neha
may
fico
URBAN
PEC
1.
';
▁variable
▁régi
▁ritual
▁laboratorio
▁electric
▁Martins
▁Lou
▁Giann
▁Children
titi
tigation
ris
ordered
ope
lves
HNE
▁typ
▁revol
▁repri
▁marin
▁hast
▁fut
▁estre
▁Dam
▁Country
▁119
pregnancy
iornata
icci
genera
ches
atmosph
EZ
▁pest
▁mero
▁edge
▁Patent
▁Giov
▁39,
traffic
tected
romper
overview
lence
gruppa
equip
▁fanati
▁disputa
▁bersa
▁barba
▁Ryan
▁Med
▁Kalla
▁Delega
▁Chia
▁1-5
lysis
lis
lever
iso
fighter
fica
elevat
elementary
ciec
SL
Opportunities
▁mayor
▁85,
▁37,
put
mbling
label
iving
grafo
biet
ENER
▁spro
▁grey
▁emin
▁acces
▁Royal
▁Renault
▁Pér
▁Instrument
▁Filipp
▁Bundes
▁Andalu
ouwer
oco
circ
RI
Maybe
MARTIN
FOR
Dayton
▁tie
▁numer
▁lady
▁Roy
terapia
rici
jani
ggend
favorito
elor
ardi
Welcome
85%
▁substitu
▁gratuita
▁fint
▁Studies
▁Point
vago
tevi
ime
gui
gigante
flux
enforc
effect
Un
UFF
Reports
.11.19
▁bonus
▁bell
▁Super
▁Rapport
▁Plas
ston
lution
igare
him
dia
dar
assaggi
Q
▁serb
▁Topic
▁Phar
▁Fif
vocation
variat
sumer
rom
ricett
ppur
liness
hti
hor
flue
diligen
bire
afar
▁slip
▁shak
▁customer
▁Syri
▁ETA
variations
reign
region
landers
laborar
igiam
haul
gne
cursor
crear
busy
Supreme
Limburg
16%
▁siri
▁pill
▁lit
▁ev
▁docent
▁Sto
▁Sep
▁SU
▁Ech
▁Access
▁155
▁133
zida
trova
tava
stream
rejo
peste
guo
entrar
ACTA
0%
▁vali
▁puli
▁interview
▁bomba
▁abstract
vestir
scrizion
san
nferm
luxury
locked
hu
hel
TT
Additional
▁homogen
▁Manuel
▁Fernández
▁Cour
yle
win
retoria
penda
monds
inc
icated
ferit
fam
assi
ESA
▁tai
▁recl
▁polici
▁milit
▁engag
▁bil
▁angle
▁Mark
▁Hind
ob
ntusias
lieu
gina
emporary
Unity
Goed
BST
▁prat
▁pont
▁Lata
▁ESP
▁2015
tibet
resc
merchant
intervista
collar
brace
avan
▁pieg
▁joy
▁banal
▁Vall
renti
qualifie
ethanol
citer
arvalh
▁window
▁tyr
▁Parallel
▁Mel
▁Hall
▁(197
word
uca
ticos
confession
▁compat
▁Ferri
wool
vici
terapie
irra
cimo
build
annar
▁plasma
▁gare
▁consola
▁cancel
▁campan
▁SCH
▁Michael
uw
setting
patria
lori
doni
6)
▁ze
▁morb
▁Rui
▁Rich
▁Port
▁Morris
trazione
lord
igan
fficial
celebration
Situation
Oral
LV
▁terme
▁pave
▁IT
▁DNA
litre
impede
goni
cont
barometer
aparte
▁une
▁honey
▁ama
▁Mira
▁Bologna
tuber
trui
nonimo
moral
Minsk
?»
▁gratuito
▁emi
▁cloud
▁bande
▁apparatus
▁antiqu
▁Quart
▁Nap
▁Contempora
▁1956
ö
torial
termination
since
parte
optional
nergia
imane
herapeutic
drop
clare
Madagascar
50
▁lamp
▁fort
▁convo
▁baro
▁arc
▁Sari
▁PAN
otted
mium
ilestone
amma
94
▁DO
▁Ali
trate
illic
gated
cacao
▁trivi
▁practic
▁Peru
▁Bur
▁Bei
▁Aug
ç
velen
pop
mediata
kop
face
add
_
UNH
14%
▁strana
▁demo
▁Tan
▁108
prim
nere
misto
kat
USA
▁infant
▁consume
▁Tunnel
vere
style
ricordi
iz
irante
impuls
emplar
Terrorism
Member
ETTI
▁tour
▁spark
▁sommar
▁reba
▁forever
▁Santos
▁Radio
weight
upp
safe
perto
leasing
ishes
ipoteca
fantasia
ellis
cambo
bbie
Integrated
▁thin
▁tan
▁subs
▁reside
▁crack
▁aprend
▁agita
▁Navarr
tarla
risk
rastin
mild
ki
estima
ammin
akis
Overall
Munich
▁psich
▁pia
▁nazio
▁march
▁boom
▁betra
▁Things
▁Stab
▁Ling
terrorista
outlets
nimi
CHRIST
▁tyre
▁teatro
▁mais
▁Tobi
▁>
tron
electrical
dor
containers
band
awai
▁invas
▁hor
▁Pros
▁Fou
▁Amar
xtraction
tivat
recording
rd
dure
bani
▁conversa
▁bon
▁Tamil
▁Network
▁Item
▁BBC
thir
levo
clusion
arest
Catalan
▁nervo
▁fre
▁cry
▁Senat
▁122
volved
spir
opati
gent
eliminar
aison
▁volum
▁pneumati
▁ja
▁citrus
▁bott
▁Mont
▁Had
▁Gu
▁Florence
walls
simo
scanner
printing
ootwear
ndante
gona
everage
br
alli
▁venta
▁dry
▁colli
▁cement
▁Total
▁Franc
▁38,
vigo
tired
emies
▁palli
▁neona
▁intelligen
▁conversation
▁authentic
▁Von
▁Fan
verno
uoso
siva
retic
pal
illy
chiesa
cchi
▁descri
▁Territori
▁Sei
▁121
ternal
tched
questra
clash
aminan
LEY
▁rele
▁quadra
▁1,5
sters
itt
iger
edusa
adv
1994)
▁strid
▁smart
▁coco
▁Pension
▁Depre
▁COLL
tregu
prenota
posita
lwyd
ficando
colar
bank
Important
INS
FY
97)
▁pane
▁mail
▁broke
▁Long
▁Lane
▁Dess
▁47,
station
socialism
sima
scribe
scherm
natural
chile
bone
Island
Ambiente
18%
▁strati
▁redistribu
▁reap
▁molest
▁escala
▁cycl
▁bagn
▁GM
▁Bagh
fermier
ESSEN
-2013,
▁shopping
▁perd
▁moda
▁inf
▁Th
▁Stock
▁Sic
▁Lies
▁Lamp
▁Escu
▁43,
ual
tterem
super
osis
eto
eggs
dents
dent
cus
LAND
Firenze
▁strand
▁sham
▁prete
▁pedagogi
▁mafi
▁layer
▁gau
▁bra
▁Schin
▁Saint
▁Piano
▁Dü
wind
uva
petro
consent
ciment
bbies
ample
Australia
8)
▁vene
▁patriot
▁arte
▁Ultimate
▁Ley
▁Gh
▁Flan
ussen
tter
roce
obey
motiv
memora
linical
insight
glomerat
culto
contemporary
basin
accion
Documents
Colonia
Col
▁rome
▁genu
▁decor
▁catalan
▁Stan
▁Saturday
▁MON
▁GI
▁Change
▁1962
vola
unis
uel
tissimi
scente
ormon
bing
animo
EG
.07.19
▁pelle
▁metalli
▁Supp
▁Interior
▁HA
▁Ade
trades
▁soy
▁filial
▁Nutr
▁Nine
▁Major
▁Kabu
▁Hannover
▁Alm
tie
storting
offshore
mocrati
clearance
cidente
chicken
audit
▁zo
▁sky
▁situati
▁rub
▁mg
▁depre
▁Wagner
▁Hope
▁Brand
uman
netto
algeri
VON
▁vel
▁edil
▁connect
▁Op
▁Experience
▁Carlo
▁189
zzati
tear
rôle
nditore
lous
ks
doption
container
cademia
afta
Rasm
Continue
▁tou
▁skin
▁neri
▁hid
▁gusto
▁basil
▁Marx
▁Diamant
▁280
ête
zek
vando
tui
mish
felt
erba
apete
SPG
27/
▁reproduc
▁pla
▁insolven
▁fluid
▁bull
▁broker
▁Pomp
▁Lud
▁104
valent
titioner
run
marine
lund
lite
ettore
dreams
60
▁predica
▁nucle
▁laborator
▁Roo
▁Pron
▁Bilan
▁Basel
yla
pesan
olosa
ison
fund
fit
facet
cosmetics
cigarette
1975
▁scr
▁panorama
▁illu
▁bin
▁Test
▁Five
▁EN
truff
specific
secretary
rthy
popo
ontingent
ologne
ndan
licher
GLI
▁transcend
▁rubb
▁benze
▁Capital
working
urtain
top
rolling
pounds
hino
giant
fesi
authoriz
KER
2-5
▁website
▁religions
▁miri
▁candida
▁Publications
▁Ore
▁Bon
▁Bio
ulmina
revention
kin
ERT
Chair
▁unde
▁registr
▁pictures
▁miele
▁History
▁1951
▁152
ão
rocket
otocicl
modificar
mming
merge
ebra
Bur
▁trava
▁audi
▁Solidar
▁23.
tics
rosa
otic
mount
laureat
ggiungi
collet
bianca
asses
alter
CEN
▁stories
▁fana
▁exit
▁espi
▁crash
▁accessori
▁Vent
▁Thom
▁Technologi
▁Tao
▁Rib
▁Mende
▁Alti
ristian
istingu
disciplin
dio
colon
Simone
RE
▁wheel
▁transplant
▁strap
▁parcel
▁nere
▁gift
▁describ
▁Entr
▁Dev
waves
sional
quez
pecca
needed
indo
ected
chilo
ccult
bner
bble
VI
Qu
ING
1976
13%
▁fai
▁Monter
▁Bernard
lateral
itive
atorial
annak
EKA
Currently
▁mina
▁mill
▁consiglia
▁coat
▁Söder
▁DEC
▁Birmingham
zich
tsunami
rivative
rak
ann
▁strato
▁provider
▁kilo
▁fest
▁confe
▁cicl
▁celebr
▁Schw
▁Jos
▁117
▁1-6
ren
plung
onde
odo
ificante
fren
edges
dete
design
cluster
alazzo
ECON
07/
▁indo
▁gru
▁dinami
▁crystal
▁Glori
▁Cari
▁Bag
quand
pension
loyal
lente
je
imba
balne
adde
UNC
Bolivia
▁paraliz
▁marti
▁manif
▁cheese
▁cabin
▁Capp
tomic
stricted
nna
istrutt
gir
forte
cloro
cis
atic
TAD
▁schem
▁impu
▁SAVE
▁Reci
▁Proced
▁Fav
▁Dec
▁51,
▁45,
▁1963
vicin
skim
ib
UA
OK
Hot
GU
DK
)?
▁sier
▁salve
▁rapi
▁manda
▁cup
▁Uni
▁Programm
▁Prague
▁Pope
▁Index
▁126
valente
track
rident
pedizione
olica
memorat
irati
hormone
dati
bon
André
▁lup
▁lecture
▁dogmat
▁cas
▁Olimpi
▁ICT
▁Geno
▁Denk
print
pered
loose
ension
colate
ciation
cated
Mitchell
▁Π
▁sadd
▁dap
▁Pierre
▁Ph
▁Monde
▁Mold
▁Fau
▁DELL
▁Cold
í
stick
ribu
rapport
nergie
maroc
log
lied
iden
atalyst
ada
Se
AGA
90/
▁vente
▁lag
▁dispara
▁Alme
▁190
trins
rier
pet
habit
etanol
capture
ambo
Cultural
▁intrav
▁biel
▁238
▁102
▁1.2
nurse
ndersson
lan
imitation
fish
ears
actual
UCK
OSTE
CLE
▁zi
▁prof
▁peri
▁degenera
▁Til
▁Expert
▁Dap
▁58,
▁22.
érez
sizing
semble
outs
nifica
iseach
intens
iga
die
dealers
AMI
ACE
▁sat
▁propaga
▁depression
▁auditor
▁Thy
▁Koz
▁Davi
▁Cis
uvi
rut
root
ponent
nic
lement
eglie
cicli
calculate
bullet
asper
Opel
11
▁technique
▁risu
▁fero
▁Vari
▁Kati
▁Island
▁Iron
▁Fu
▁Fabr
▁135
tious
ticism
specially
mobil
mic
lapid
here
fice
enheim
discovery
boards
bato
ITS
'),
▁spur
▁ramo
▁Turm
▁Leonard
▁Age
iglior
hanging
exist
donate
bor
UN
Graduate
▁remot
▁phone
▁locations
▁han
▁festa
▁Verge
▁Revolution
▁Reference
▁Pon
▁Indic
▁Gund
▁Dimension
▁Dav
unders
trando
stereotip
polit
people
▁trav
▁shell
▁rectifi
▁prepo
▁negati
▁minu
▁lip
▁hotel
▁buri
▁Galla
▁Brown
▁145
rehen
reating
mministrazione
lop
invest
hagen
automotive
ITES
ECO
1977
▁philosophi
▁pedofil
▁jump
▁inventari
▁drama
▁culp
▁bud
▁Universal
▁Inver
▁2.5
▁1948
ulticultural
tainment
shop
nuts
grafico
etting
deprec
cursion
copie
cleaning
bounds
bonament
Rhodes
65%
.4.
▁trauma
▁telefonic
▁Thomas
▁Pedi
▁Ip
▁Fernandez
▁Fasci
west
tone
tisti
pensar
natura
nahan
ibiti
fredd
expose
colegi
chester
celle
BURG
91
▁prog
▁pani
▁Read
▁Bru
▁57,
▁1966
üssel
veva
spron
nobili
lon
estrian
children
assette
agir
POSTA
▁usu
▁tas
▁proximit
▁prac
▁intru
▁Schro
▁Parte
▁Liverpool
▁230
▁2-4
pound
pai
etty
bid
beth
annat
Question
MFA
MAN
▁Τ
▁stu
▁bile
▁Made
▁Gale
▁Borg
▁116
type
quente
nitrogen
fluent
flex
even
duri
bsorption
boys
antonio
Implementation
ADAM
▁valle
▁penis
▁Mem
▁Commons
▁Bach
▁46,
sey
logici
glione
gled
gional
fug
chwa
Warner
State
Permanent
Av
6/8
/04/
▁telefono
▁supermarket
▁persi
▁metro
▁infan
▁hurt
▁fett
▁ami
▁Ti
▁Af
▁101
riam
rey
minute
geno
Pa
MANS
Javier
Heinrich
▁wc
▁anarch
▁131
ux
lé
ggage
fart
aged
RACE
ICIAL
▁vert
▁Imp
▁Bert
▁BAR
▁370
▁111
▁0,5
wholesale
underground
ques
much
ellino
cronic
canic
auction
aste
arritz
alism
▁robb
▁pakistan
▁curat
▁allergi
▁Lun
▁44,
vocat
tasche
pun
occhia
nutri
lessen
ix
isser
forums
but
ace
Opinion
Mayor
▁stereotyp
▁sh
▁ol
▁navig
▁finit
▁espe
▁Tarif
▁Norman
▁NO
▁Grande
▁71,
▁136
zis
wenty
tinata
pudi
phan
lots
ionist
camere
avenue
Paraguay
Norwegian
Internazional
▁dime
▁VII
▁Ka
▁DER
▁41,
▁(*
tinis
population
ollision
loaded
lmente
fett
cerca
.10.19
▁rent
▁predi
▁kick
▁Lambert
▁Frankfurt
▁CD
▁3,5
vigne
izes
immobiliare
corto
MA
Highland
Genov
AF
-20
▁yen
▁upgrade
▁sane
▁magazine
▁ferr
▁Wohl
▁Suda
▁Continent
▁Calv
▁2015,
uoti
rtney
roadband
parco
mbro
liers
hungr
foot
edit
dat
counsel
approch
anima
anello
1990
1980
▁verba
▁swe
▁memor
▁guest
▁golden
▁beach
▁Pare
weekly
utsi
taro
serba
redo
rado
parent
onrad
intel
inese
guin
glucos
georgia
ender
2-6
▁lunch
▁hall
▁fait
▁edili
▁bone
▁Stri
▁Rica
▁Folke
▁Dai
▁Argentin
vern
subir
opo
lum
ltipl
lec
lashes
got
fever
eren
dirty
avaria
Trevi
17%
▁upgrad
▁spill
▁meteorolog
▁incre
▁hill
▁Vuo
▁Martinez
▁Interven
▁Cabr
utata
peace
ousness
ncing
mini
legal
lapsed
ficiency
PER
▁furt
▁discr
▁brus
▁blank
▁Look
▁Comme
▁Cat
▁Care
▁27.
viera
sizes
official
nimm
calan
anchor
amano
26/
/68
▁toto
▁propu
▁milli
▁geneti
▁filosofi
▁coffee
▁bind
▁belt
▁advent
▁1000
vene
rushing
ogo
od
iv
emerg
dock
creti
compatibilit
clone
caria
Ordin
ITY
INST
▁tide
▁imita
▁finaliz
▁Polo
▁Confer
▁54,
▁123
▁0,
ussi
trol
tash
spot
rad
pts
irways
ilor
gloss
glar
dell
cessit
casting
ammo
agente
aeda
It
FD
▁socia
▁horr
▁anglo
▁Rum
▁Police
▁Pitt
▁1964
▁173
én
ário
suscit
sore
reg
nisti
jon
ffrey
embri
REX
François
▁él
▁guaran
▁cass
▁Vicen
▁Sap
▁Mars
▁Emi
▁Denis
▁Controll
ndu
lay
ky
hydrogen
genic
function
TIVA
Di
DEI
05
▁trem
▁refrigera
▁loc
▁diverti
▁McK
terrestre
shield
raccio
meal
fat
diment
cip
asti
2-18
▁rock
▁parch
▁bond
▁bibliotec
▁Santa
drogen
cumulati
cario
ave
agi
45
▁soci
▁finan
▁fax
▁bos
▁Sky
onic
ologica
lyse
elon
bilan
barco
arti
(*)
▁spac
▁Thor
▁Press
▁Napol
▁Mora
yan
wers
subscription
ssez
riot
respect
our
ough
nsity
mone
lique
legre
harity
can
brand
Per
FRONT
(82)
▁spina
▁centr
▁antica
▁Win
▁Stream
▁SS
▁CRE
▁90,
▁3-
▁144
zquierd
ovano
olen
invent
cond
advertisement
Karaman
HIV
96/
2-7
-30
▁terminologi
▁lapse
▁installat
▁centraliz
▁cater
▁calibr
▁amazing
▁Grön
▁Au
▁30.
▁124
tsen
setti
sani
rous
ransparency
pr
nous
maturit
matches
leaf
hores
ersailles
UEFA
Ko
IPA
8/8
▁suda
▁random
▁gin
▁Senato
▁Male
▁Hul
▁Ge
▁GBP
▁Fig
▁Club
olini
installed
dling
commercial
bbing
alberg
Gi
AVIS
▁literature
▁bed
▁DAN
▁65,
raro
planting
investiti
han
grow
green
brake
Alpine
▁tramp
▁ticket
▁posse
▁joke
▁hind
▁farmaco
▁daughter
▁cau
▁cada
▁babi
▁Schie
▁Farm
▁Ama
▁69,
tel
stub
penna
information
gle
enumera
def
colombian
appliance
ZER
ITER
ETS
31/
▁pump
▁mig
▁hos
▁conf
▁ah
▁UNESCO
▁Put
▁Enterprise
▁4)
Ί
veda
usto
olistic
fraud
etary
emergenci
connection
OUR
1980)
▁load
▁germ
▁fis
▁bre
▁Iber
▁COP
▁650
vasti
udge
tility
ppel
pelag
nano
lonso
comoda
aching
Campani
Call
21/
▁Ö
▁uten
▁parametr
▁lenti
▁hen
▁Intern
▁EPA
▁132
zerbai
weep
treat
tickets
pause
metano
isha
foss
feldt
esity
dev
bro
ORD
1978
(4)
▁Ε
▁clients
▁bere
▁atom
▁Nag
▁Mühl
▁Meeting
▁Harmon
▁Fine
▁Cabe
▁Ans
▁Acce
umour
shout
rode
ried
pari
onian
compagn
careers
SO
Mongolia
CORE
BASE
64/
30
▁wai
▁pipe
▁editorial
▁comparti
▁Troi
▁70,
Ι
wine
trati
tagon
revisor
rear
passat
olari
incir
iffer
EEA
Better
11%
/10/
▁repe
▁properties
▁profili
▁listing
▁fran
▁desse
▁anonim
▁Rodi
▁Improv
▁Child
verted
uros
stitution
rational
rassic
pond
placement
organis
organic
onfedera
itian
imbal
iba
gena
convenienc
ards
Though
RS
MS
Gro
Army
92
2-9
▁whi
▁mest
▁incub
▁feste
▁crowd
▁bow
▁Uber
▁Nove
▁Michelin
▁Mess
▁Ki
▁Guard
▁Comp
▁52,
▁228
▁(196
thorn
spion
setia
pat
nteressante
nghe
math
dong
brig
anzo
SYN
PROG
9/8
▁studente
▁episode
▁Gaut
▁(5)
rtium
mbrella
libraries
letti
ister
flit
ficient
esidenziale
elty
dison
bund
atasi
▁tech
▁mood
▁dirig
▁beha
▁Local
▁92,
▁64,
▁(1990
utate
sted
simme
material
lewood
lection
homework
gender
crime
PKK
69
4/
/05/
▁tarif
▁stuff
▁nef
▁hi
▁arri
▁Ruf
▁Kosov
▁Export
tributo
tif
ommonwealth
kan
ipolar
fem
bak
aca
Commu
1408
▁ke
▁dro
▁dari
▁aeg
▁Sten
▁Spani
▁Mund
▁Mun
▁Limit
▁Gall
▁Ella
▁53,
stin
ssistance
rope
plac
pil
origin
jevo
fl
deli
alista
GV
▁gri
▁calci
▁arti
▁Rim
▁Mart
▁Hez
▁55,
viano
stral
organism
let
latura
inventory
intention
imman
filed
consum
collo
change
anca
UNESCO
Payment
ANGE
▁invers
▁documentar
▁dam
▁cog
▁Watt
▁Ven
▁Torna
▁Termin
▁SA
▁Ministeri
▁Maria
▁Kiev
▁2-5
▁$
vod
verte
tubercul
tray
honest
evit
egando
chito
book
accept
UTS
Perry
Myanmar
Marie
16/
▁mont
▁insan
▁imperfe
▁exo
▁dating
▁coron
▁Torres
▁Fair
▁Chev
▁Cas
▁66,
▁106
”;
umbo
uche
traits
lett
illi
default
crafts
corder
cil
carpet
ash
abila
PES
LET
▁surge
▁ratt
▁pole
▁hate
▁amic
▁alpin
▁Cup
▁ALT
trica
ixture
ituen
folo
bypass
barrel
TIONS
RY
Election
Codice
BLIC
▁tira
▁tac
▁sy
▁resen
▁pese
▁mega
▁diba
▁Und
▁Sä
▁Space
▁Oil
▁127
tiri
linna
dito
chine
Ke
AZIONI
▁pomp
▁objectiv
▁harness
▁ef
▁Normal
▁Messin
▁Applica
▁299
usage
uragan
therapy
sistenz
pping
igu
fari
expire
corps
UCL
OSE
Conduct
3-12
▁spoil
▁sald
▁recru
▁impl
▁gal
▁editor
▁Gon
zón
thing
sights
saldi
rogant
repon
lated
galleria
dino
chmitt
catalogo
budget
brid
Unico
Merit
ISION
CSU
▁sch
▁recycl
▁egg
▁bird
▁biciclet
▁Stabil
▁Sp
▁Schnell
▁Paz
▁Mol
▁Hassel
▁Gill
▁Future
▁Duc
udi
trading
rnando
retra
remot
pelling
nautic
mismo
gonf
gera
estive
ducing
cisa
cello
boni
LD
CAO
▁trat
▁inject
▁homo
▁emit
▁bet
▁Valle
▁Ero
▁Competiti
▁Case
▁550
▁0,7
▁(1
vita
uge
sim
shill
og
nost
mpien
mobiliari
icon
gramm
globe
centr
bear
answer
URI
Eight
▁tree
▁toy
▁scenari
▁instruction
▁cavi
▁bless
▁Louis
▁Giovanni
▁Burg
▁240
zin
voy
vado
teli
oru
ombre
measure
logistics
infinite
graphs
curate
audience
Van
REZ
OX
OU
▁vendo
▁multimedia
▁miste
▁genom
▁brother
▁anali
▁Tac
▁Rado
▁Heath
▁(...)
xploration
vid
tractor
spiration
scent
scandinav
ruth
rchio
ppe
olocaust
metri
link
gregation
dist
discuss
close
administration
TRO
Repub
DC
4)
1992
▁stadi
▁regal
▁mate
▁Mosco
▁Guardia
▁63,
valid
trag
tons
strick
portar
pel
heran
VO
UT
Making
ERE
Cerca
▁legi
▁influenc
▁hool
▁dib
▁bail
▁Ott
▁Kaup
▁Jo
▁Diploma
xtinction
olva
minimiz
metic
mbeni
jungle
futa
fani
copo
cemento
Report
1),
▁stalin
▁mirror
▁compet
▁cel
▁Poll
▁Nikola
▁Ju
▁Bri
▁9.00
▁24.
▁236
▁114
valor
ordial
lucky
liance
lette
kosov
isa
curriculum
Tur
EGAL
83
55%
▁tato
▁swee
▁gun
▁fog
▁esco
▁dram
▁analogi
▁Tanzania
▁Pop
▁Kou
▁FF
ôte
òl
vì
scenes
membra
croci
Kazakhstan
IJ
2-4
-1999
▁tid
▁previo
▁fio
▁abat
▁Vila
▁Stub
▁Simpl
▁Kamp
Ö
sures
statement
shaped
regi
otte
itary
Semi
SDP
RWA
GB
Edinburgh
Agri
▁optimal
▁demon
▁cm
▁Were
▁Sánchez
▁Pá
▁Prote
▁Fare
▁Baha
▁850
▁223
▁09
tanam
stazione
rønd
quo
mechanical
mbassy
inate
figura
cup
contract
buyer
THER
Si
LING
LEX
Altro
35
27%
▁vitamin
▁vicinanze
▁stron
▁stee
▁rev
▁mona
▁Pr
wn
translations
terra
shooting
regio
ratta
products
ombudsman
ocul
legum
icino
apprenti
Provision
3-8
04/
▁trio
▁sleep
▁propagand
▁moll
▁gratul
▁dissol
▁Eff
▁Airport
▁1952
watt
vinci
venne
spezi
prote
midnight
lator
icing
gislativ
genes
enumerat
dijk
XIX
Arabia
Arab
))
▁spet
▁polite
▁hort
▁gir
▁dig
▁Minor
▁Grenad
▁Germ
ssant
puis
metropolitan
mathematic
latte
cev
afia
WA
LEON
LE
36
▁gabi
▁Still
▁PAP
▁NEW
▁Gros
▁Continua
▁Catal
▁Baker
▁Agri
voire
visions
tomato
stiga
pleti
iolence
ickness
headlines
generico
dense
arrel
ardo
40
▁naz
▁ib
▁foto
▁fossi
▁disorder
▁Strip
▁Rug
▁Petro
▁Lake
▁Grant
▁Giac
▁Democr
▁DR
▁BY
▁59,
▁0.7
vulnerabilit
uli
rchitectural
rasse
prints
mas
fraction
Herz
▁svin
▁ludi
▁Project
▁GPS
▁Bø
▁95,
truit
ratings
pensa
orrelation
lap
ila
gado
emp
ecology
cent
80)
6.30
1-8
▁ortodo
▁apple
▁Us
▁Sada
▁142
▁134
▁(2
volo
tainable
sportiva
som
propos
pirate
modus
lasse
expires
comuna
cinde
asp
OCK
MT
II
Catania
3-10
▁pal
▁identifie
▁glori
▁electro
▁cultiva
▁Terra
▁Sent
▁Operation
▁Gaw
▁Assist
▁Abbas
▁68,
▁355
▁148
▁107
tami
pria
ppeal
ouse
ngalo
nante
loyalty
lloc
lation
iza
burst
buco
OL
Conclusion
▁photograph
▁instrumental
▁clan
▁Sass
▁ME
▁Din
▁61,
▁301
▁199
tan
nigra
intensit
formidable
fitt
disc
cute
conf
azze
Sch
Palermo
He
EEK
Botswana
02/
▁suits
▁device
▁carri
▁cabinet
▁biz
▁Works
▁Vir
▁Serve
▁Salut
▁Lub
▁93,
änen
viser
uchet
topia
sud
public
nta
masse
loved
lain
arbitr
],
Wise
VET
Traffic
ROLE
Cite
CEF
28/
▁glo
▁defici
▁Main
▁FIFA
▁CU
▁87,
état
vier
tora
frame
cho
brink
any
ajan
agged
adese
Grup
Chemical
▁prud
▁pack
▁interdi
▁filtr
▁fid
▁dono
▁cable
▁Position
▁POP
▁POLITI
▁Manufacture
▁GO
▁Especial
▁1930
▁143
▁141
rivit
ouches
multiply
mma
matri
cken
calda
▁recipe
▁pala
▁infecti
▁implant
▁brutt
▁Projects
▁Prefer
▁Nep
▁Brin
▁Brett
▁26.
▁167
vincent
tland
sciut
ressor
organisation
onsulente
nell
heaven
fuss
ellente
\
2.000
▁sister
▁saga
▁raid
▁opus
▁inner
▁infrastructur
▁falla
▁ces
▁architect
▁Voc
▁Tai
▁Rosa
▁Kolo
▁FI
zarre
tures
sub
sol
scleros
santa
rul
opening
chin
celli
away
ators
alati
Gar
ASIS
ARD
ANDE
▁regres
▁Top
▁Saar
▁RO
▁Miller
▁Doctor
▁Carl
▁Band
▁290
vel
this
rossa
price
nverno
negoti
lodi
linger
itos
iner
idios
harian
ev
estir
dimensional
chner
centric
bellissim
bane
bach
analytic
ATIONS
22
▁matematic
▁mamm
▁contempl
▁comfortable
▁Mali
▁Hamburg
▁Ear
▁Daniel
▁Concentr
▁80,
▁75,
▁146
urs
ullo
tenda
rendi
marvel
foni
china
boo
Figue
Capitol
46
▁storie
▁myster
▁mac
▁hint
▁hair
▁geni
▁bibli
▁bada
▁allen
▁Sinn
▁Polit
▁Niger
▁Nem
▁Large
▁Como
▁Coast
ursal
ups
tine
sheer
rich
otec
ionario
ificar
exc
escala
endum
diven
dite
cts
ICM
ICC
EMBER
DICA
Based
/03/
▁veh
▁turbo
▁horre
▁fol
▁fod
▁consid
▁Page
▁Lib
▁242
▁(1989
zat
utilisation
tially
stagi
spect
senator
ples
incu
guar
ggles
enetration
competent
civa
ampionat
agus
Westminster
Sustainable
Mar
MR
ITIES
Chief
▁shake
▁hell
▁brun
▁Pla
▁Garga
uck
tou
tatt
pleto
nto
lebis
ique
egano
ecto
cast
bord
appetit
Yes
JET
INDE
ARDO
32/
▁shoes
▁rooms
▁investor
▁Wim
▁ON
▁Gui
▁Carlos
▁Als
squ
sindrom
schede
ramai
pinne
oppos
nhancement
nete
mick
llen
dogs
celo
apporter
Pietro
HON
Art
1973
19
.9%
▁trad
▁guar
▁Wind
▁Ur
▁TEMP
▁Kazak
▁Fü
▁Anglo
stark
ré
regalo
prescription
page
oz
mprovement
enstein
dle
commut
bih
Supervisor
SIS
AEA
18
▁sve
▁span
▁clu
▁bland
▁Woods
▁Sy
▁Open
▁MERC
▁Level
▁Fernande
▁Dag
▁Art
▁Abo
zate
trademark
spots
sats
quip
lup
lt
lez
hole
gic
eci
cadr
arrang
SDI
Islam
APE
▁rede
▁pressi
▁peak
▁nos
▁muta
▁gay
▁colo
▁aug
▁Table
▁Societ
▁Mission
▁Llo
▁Christianity
▁Anger
▁86,
tissue
theatre
scendent
fret
curand
amen
account
TAB
Martínez
Current
3-9
09/
....
▁strat
▁persa
▁inci
▁hole
▁glor
▁fri
▁Watch
▁Reykjav
▁Lad
▁Kurdistan
▁Butt
▁Ahmad
steering
scratch
razie
passar
paragraf
onsciousness
hed
enca
elec
dimo
NOS
LAN
IC
1970
▁leuc
▁direc
▁degrada
▁cade
▁bright
▁Vá
▁Sil
▁Rein
▁PM
▁Mas
▁Mario
▁Kok
▁Fe
▁Father
▁Catalog
▁Boz
▁Border
▁308
▁206
vaccine
tio
ringend
rimonia
realista
petroleum
nigeria
hail
ara
apporte
acious
1992)
(1979
▁trib
▁respirator
▁ostr
▁mil
▁inventa
▁imperial
▁Pat
▁List
▁Kinder
▁Jö
▁Hap
▁Fl
▁ED
▁Charles
▁CHE
▁AI
▁67,
▁(8)
talento
sid
q
lico
latt
lak
laga
idium
herald
gué
boxes
DG
':
▁strang
▁regi
▁priest
▁polo
▁intre
▁festiv
▁bili
▁assign
▁Ze
▁Vil
▁Torn
▁Set
▁Products
▁Crem
▁CAR
▁<
toni
thermal
ritmi
ordea
helicopter
hele
hammer
flowers
dentar
citat
bicycle
aider
accessibilit
Turkmenistan
18.30
17/
▁ty
▁steam
▁rally
▁pran
▁cheat
▁cet
▁beauty
▁Sun
▁Reserve
▁Nato
▁Mash
▁Kar
▁Exchange
▁CA
▁Azerba
vance
gel
ffici
fective
afu
RAL
Pat
▁sm
▁patron
▁nut
▁dieta
▁brasil
▁True
▁Sicil
▁Animal
zelo
vitro
sex
rango
quiri
oux
nei
legitim
fluoro
export
enne
azzi
adis
about
Mixed
Conditions
98/
▁stent
▁sel
▁recept
▁plate
▁minus
▁doz
▁crazy
▁coro
▁bog
▁administrator
▁Sind
▁Plant
▁Arms
▁29.
▁2030
ør
vino
tt
stay
riction
nything
grams
ettu
endocrin
clave
cannabis
business
CCR
Alba
23/
01/
-19
-17
▁revitaliz
▁infiltra
▁fot
▁crush
▁Ord
▁Lyon
▁Kapp
▁Fun
▁Earth
treatment
residente
protector
oon
mière
memories
mana
illet
handling
gangs
entra
delight
cilla
VES
Li
Angela
▁trail
▁skil
▁scri
▁lights
▁imperi
▁entertain
▁Valer
▁Moll
▁210
▁1961
▁12-
vage
sponsored
resistant
rem
nofo
negri
mort
juven
hope
flow
eront
curricul
chair
Yorkshire
Vatican
-80
▁vide
▁halv
▁golf
▁fama
▁basket
▁balc
▁apt
▁aller
▁acceso
▁Papu
▁Kil
▁Fior
▁CARD
ttile
sec
opt
nota
moldov
incarn
hl
happiness
fest
double
diti
bey
aches
Railway
ETA
CIP
42
3-0
268
05/
▁processor
▁festival
▁bei
▁Ya
▁Prim
▁Orden
▁Nie
▁Less
▁74,
▁163
»;
true
reading
pore
ple
outra
guess
compare
Ocean
Instance
ICA
Frontier
14/
003
,6%
▁vele
▁tir
▁rabi
▁poly
▁neuro
▁neh
▁monstr
▁graph
▁etern
▁egoist
▁Think
▁Plus
▁Kreml
▁Joseph
▁Der
▁Damas
▁Bull
án
zini
vad
tum
osio
orno
omba
olu
ologists
ncer
graphic
gira
giat
bell
ANA
29/
00%
▁pressu
▁mace
▁fanat
▁biblioteca
▁California
▁CP
▁Berg
▁(0
uosi
ukushima
plex
ound
koski
global
ggiorna
fosi
formula
fascin
distance
contra
conce
Harrison
EMAS
797
▁verge
▁shir
▁mula
▁mania
▁cont
▁Lip
▁1940
treasure
saari
roof
ront
read
pos
noc
merci
istan
ionista
heroin
cars
american
agnoli
Punta
ATO
88.
22%
03/
-1990
▁wis
▁tolerant
▁stars
▁rece
▁ramp
▁marco
▁library
▁isol
▁Victor
▁Vand
▁Jeg
▁Fail
▁DOM
▁Cris
▁158
uidelines
uattro
sketch
rities
predict
ometri
lavoro
kon
els
convert
cons
azio
accelerat
RESS
ORE
EIL
39
▁teor
▁inventor
▁corn
▁ceremon
▁battery
▁Translation
▁Street
▁Poto
▁Hut
▁Chat
▁Belo
▁237
▁218
▁1939
tene
rison
rediti
rari
pattu
injection
iegu
grott
ffre
energy
cinio
cedente
catering
cap
▁tribu
▁pion
▁pero
▁orchestr
▁glan
▁arro
▁abor
▁Statistic
▁Rouge
▁Parod
▁Nature
▁Eu
▁AT
▁177
tikas
such
pac
nutrition
mmigration
mmende
maschi
icola
hen
entative
common
bosc
bauer
NSC
FT
Diana
48
43
▁quadr
▁nov
▁cyber
▁canon
▁Edward
▁Angel
▁Andreas
▁84,
▁139
timate
synonym
svig
same
rendering
rand
prete
nsa
nav
lica
ightmare
guns
dine
ciech
boll
blanket
author
archa
Gentle
08/
▁sail
▁palla
▁obli
▁geograf
▁Use
▁TIC
▁Schl
▁Rid
▁County
▁Bauer
▁147
torba
rubber
phones
ovi
nom
istin
gruen
erald
entina
donar
crown
cibi
adly
TO
ANDRE
/75
▁inventar
▁hal
▁Sever
▁Power
▁Legislat
▁Ghi
▁Fam
▁Brook
▁Arm
▁205
volen
scrut
rch
rca
programma
low
key
grand
edy
bours
Turin
Torino
Respect
Paolo
OBI
LOT
IZZA
Companies
15
12/
▁tripl
▁spart
▁pomo
▁muri
▁multiplic
▁minimalist
▁Jou
▁Indi
▁Bird
tolo
storing
silio
schia
rotation
private
minen
laboratori
ines
ffitto
cover
centes
cavo
axis
SI
Pandora
Lou
Kara
Establ
/1
-25
▁psico
▁mend
▁judici
▁glas
▁fr
▁epidemiolog
▁donat
▁automat
▁Procur
▁News
▁Neve
▁Hü
▁Ec
▁Contract
▁Building
▁Alternative
▁185
stores
stolen
sorgen
prediction
motorcycle
milk
ium
had
gensen
elephant
eiros
cycli
awk
Observator
Kyrgyzstan
Effective
EAS
1-7
0)
▁transpir
▁stelle
▁stal
▁oro
▁nutriti
▁munic
▁matrimoni
▁brak
▁Wor
▁Raff
▁Quarte
▁Pod
▁Mav
▁Blue
▁1949
▁162
▁1.3
wel
triangle
onium
ocean
mes
lers
hem
gé
guy
ermann
corse
brochure
archives
OCT
OBJE
Ecuador
CAT
319
▁termo
▁rendit
▁colori
▁argentin
▁SEA
▁Mari
▁MA
▁Igna
▁Här
utility
utilise
righe
raison
pardon
ndur
ltitude
litro
epel
dos
dolce
define
centre
PO
Ex
99
71
▁romantic
▁provis
▁osa
▁filter
▁environ
▁Trent
▁Telecom
▁PF
▁Christ
▁168
▁151
öld
yet
ondan
nin
moci
lise
leak
ifi
has
feeds
ergent
beans
bald
arhus
animal
What
Matthew
MEND
CTI
Brazilian
600
3)
(81)
▁cyan
▁cerc
▁atleti
▁alles
▁Schall
▁Numer
▁EX
▁62,
▁02
čnik
urricane
spel
spectacle
rishing
rbato
rawak
rash
ounds
ony
giardin
cumul
cions
cimi
Sicilia
SSON
Independence
APO
▁turbulen
▁riv
▁prest
▁Ship
▁Perez
▁Libera
▁Finn
▁Clark
▁Cam
▁Alan
▁360
ä
ziana
pen
ové
ovine
lov
leta
iser
iller
fresco
ettin
egge
cov
brush
appar
Demo
Bulletin
▁triple
▁spray
▁predo
▁panoram
▁multifun
▁mask
▁luna
▁empir
▁Suf
▁Lust
▁Jim
▁Essential
tite
orridor
ofobi
nickel
nesia
lead
lakes
incro
gura
gin
esibi
entras
alimento
Neil
Languages
Initial
GIO
Bau
24/
▁pharmac
▁luci
▁Safe
▁Officer
▁MAC
▁Exc
▁CHA
▁Brian
▁ANC
ühle
usz
trant
thal
stig
prov
nzi
mal
logic
fresca
entosa
calcul
burgo
EO
ATS
15/
▁maestr
▁lands
▁interior
▁ferie
▁designs
▁Medve
▁Medical
▁MC
▁DA
▁Bat
▁Account
▁275
varian
ugur
stret
sins
rossroads
retire
popular
penny
onnage
OTT
Hugo
ENZA
33
24
12
▁spectr
▁piti
▁pense
▁medita
▁limb
▁dil
▁cilindr
▁Tok
▁Sale
▁Pay
▁Orient
▁Mauri
▁Gara
▁Dé
▁Barba
▁3.5
ya
ugg
tric
sheets
raft
purse
phon
opia
marketplace
its
impati
ihr
feed
cay
bates
ailure
ME
EI
34
▁Á
▁royal
▁reviews
▁restaur
▁recon
▁print
▁Zar
▁Shari
▁Rossi
▁Lopez
▁Compare
▁Cho
▁Cha
▁Bridge
▁Bianco
▁Assi
woman
validate
tooth
stemming
simula
rance
omi
lll
lature
eferral
dori
UPE
QUE
GP
FORD
Angelo
Ac
23%
19%
06/
▁inclusiv
▁hardware
▁generator
▁elu
▁desk
▁adventure
▁Vo
▁Sjö
▁Poul
▁Pesca
▁Kost
▁Gem
▁Conserva
▁Alex
▁Aires
uder
tteri
teorie
ssica
sma
rivier
ristorant
ok
masters
gnite
essu
bury
bility
attribute
Orient
OSH
ORTE
33%
▁regio
▁princ
▁monster
▁lin
▁dhe
▁Schem
▁Poch
▁PUBLIC
▁Min
▁Kre
▁202
vergon
soci
ponen
politik
lik
hic
gine
ballo
anthem
Zambia
WING
OPE
Ignor
ARY
78
1990)
▁pasti
▁ket
▁hotels
▁hem
▁doce
▁Vilnius
▁Pra
▁Plo
▁Peli
▁Municipal
▁Individual
▁Gero
▁Fab
▁Autonom
▁Auto
▁340
▁188
tandem
standard
sistent
puls
prat
nicola
dled
ciosa
bici
actical
X
OFFICE
Liechtenstein
Congratulations
Al
▁writer
▁paghi
▁conditi
▁brav
▁Movi
▁Keys
▁Gordon
▁Funk
▁Fern
▁89,
▁1,2
sap
raw
oslov
lira
jerr
itolo
gree
egaard
cycles
carlo
bin
bien
asini
SPO
MENTS
Ernst
Antwerp
Alicante
/02
▁siste
▁pren
▁prelu
▁pray
▁philosoph
▁mol
▁dress
▁discount
▁coll
▁ampl
▁Ré
▁Panta
▁PS
▁Lung
▁Krat
▁FE
viv
symmetric
quation
pedir
partition
packet
ovani
medieval
itta
bones
angry
advert
Ri
HS
HAR
GEN
Fidel
FSA
ELLES
And
3/
-1
▁sociologi
▁pria
▁frequen
▁fiction
▁bore
▁arts
▁Turc
▁Tob
▁RA
▁Kreis
▁Duch
▁171
zona
tis
tir
sun
solid
rebre
ncies
maps
hizi
gal
enei
dressing
domin
din
aron
To
Nuovo
Eco
China
?"
0.5%
..."
▁thread
▁recre
▁legislati
▁banner
▁SIM
▁PI
▁Maz
▁Kun
▁Kir
▁Hai
▁Germani
▁Crow
▁81,
vallo
unted
umble
transplantation
rift
prom
oppi
israeli
irland
infern
ebb
dog
cultura
bler
argi
ajikistan
Recovery
Erdogan
ELE
-70
▁tib
▁roman
▁plot
▁pasto
▁lamb
▁flexib
▁fati
▁autos
▁Kuh
▁Ji
▁Discu
▁Cur
▁Aero
▁1953
vera
utu
uccio
tzen
trips
tinerari
sary
orts
mile
magi
lies
jad
cucina
cler
ceni
ceder
bus
arch
anonymous
Strategic
LEP
Filippi
FIELD
25/
▁visual
▁pei
▁obst
▁multipli
▁barri
▁aut
▁Wat
▁Via
▁VIS
▁Ultim
▁Tigr
▁Rep
▁EST
▁Calab
▁77,
▁73,
▁1959
η
vender
thesis
tace
straw
spatial
nauer
llano
laboration
housand
historian
cind
azprom
UX
Termine
QUAL
Fuel
BERS
50.000
4/8
38
■
▁§
▁unu
▁sporto
▁sna
▁diversifi
▁andar
▁Stur
▁STO
▁Lind
▁Kor
▁Gian
▁Corporation
▁Brem
▁166
▁165
▁(3
être
usar
tanya
strica
store
rô
provincial
pot
modulo
istit
inho
iduci
gates
funeral
faire
dowski
cologia
cheapest
aires
Veterinar
Fishing
FAST
Economics
Crime
ARBE
24%
▁spaz
▁singular
▁scam
▁satur
▁pli
▁nepot
▁interes
▁instan
▁configur
▁Yan
▁Vas
▁Tent
▁Short
▁Schwar
▁Rice
▁Mob
▁Miguel
▁Juan
È
utti
sequi
rept
replace
quire
nyway
ners
més
isci
hard
eti
doman
dav
confort
chenko
bare
Remember
Punto
PTER
OTTI
NER
ISO
Andorra
▁informe
▁cerve
▁Volkswagen
▁Sti
▁SEC
▁PUB
▁MAH
▁72,
▁159
zier
yra
ucchi
sole
rsat
rifle
mulg
loc
imbat
functional
cava
bri
ICIO
EV
-50
▁travers
▁sorprend
▁puzzle
▁pronun
▁prie
▁nerve
▁license
▁descend
▁Voj
▁Urg
▁Quality
▁Lab
▁Investi
▁Colon
▁Bald
▁28.
zina
venner
undi
tax
skie
raci
pollin
kay
juice
idding
generativ
emate
copper
cios
attraction
aggregate
Vinci
RSS
MBRE
Glasgow
Dimensione
CAP
("
▁websites
▁respira
▁moo
▁fes
▁climat
▁articula
▁TH
▁Supplement
▁Rover
▁Regula
▁POS
▁PA
▁Modern
▁Cala
▁380
▁1954
▁153
zero
vimento
utz
uran
stop
sk
pulso
professional
omeone
nen
incendi
idir
erica
encefal
cable
bico
argain
arctic
analog
ampling
Occidental
Mexican
If
IET
Beyond
ALI
36%
-2010
▁resu
▁observa
▁mud
▁meri
▁institu
▁gass
▁ferment
▁fam
▁ett
▁dite
▁bali
▁attachment
▁Zone
▁VIII
▁Ultima
▁Transfer
▁Tram
▁Santiago
▁Pel
▁Living
▁Ku
▁Interest
▁Frisch
▁Brad
▁Bhu
verge
velle
sured
sexual
responsive
piece
nfo
nci
lyde
legg
kistan
kills
jacket
irro
hort
fy
evento
dizi
bh
Volunt
Senator
APIT
-89
▁speci
▁posted
▁polv
▁junior
▁impr
▁girl
▁curv
▁Selv
▁Rend
▁Old
▁Addi
ÍN
wallow
stroke
osan
orin
original
neri
mode
lesen
lendo
intent
ignant
garve
esper
enia
culi
asia
Ne
NE
/78
-15
▁perda
▁mam
▁gol
▁diktat
▁diabet
▁choc
▁^
▁Journalist
▁Boll
▁Ball
valg
tsin
tones
spotlight
rop
rane
ophile
ongole
join
indig
iers
hyster
horst
harra
gico
farma
erabili
dialogu
continen
anders
Ver
RC
PEA
For
DAC
AC
41
25
-40
▁variant
▁torre
▁televis
▁sensiti
▁postula
▁mamma
▁diabetes
▁destinations
▁corporati
▁cake
▁briga
▁Xeno
▁Trust
▁Rat
▁Lion
▁Bout
▁1946
▁157
▁12.00
örf
wart
stinct
racing
policy
notes
mia
lie
lets
len
ioni
illiers
dow
communication
cit
cientific
bila
bec
abolic
PA
Estrel
EPO
Campos
CF
99%
▁primitiv
▁patri
▁patch
▁particul
▁muss
▁boss
▁bars
▁Politic
▁Leader
▁Laden
▁Garr
▁Fort
▁Dy
▁Add
▁About
▁314
▁(6)
vidia
usti
terre
pela
ospita
ncendi
mäki
lément
lib
fuse
ernández
dures
cieli
champions
aturi
amara
NICE
EFE
Ab
(1974
▁vandal
▁trist
▁pared
▁monarch
▁heel
▁buffer
▁Valu
▁Rack
▁Race
▁Margaret
▁MI
▁Kalli
▁Gast
▁Evi
▁Deva
uthi
uscat
ub
synthesis
schwitz
orati
onymi
och
multe
laurea
lam
inkler
imperfect
idrauli
gambe
elin
effi
disorders
devil
clothes
ache
URU
Servizi
ISA
IAS
Deutsche
13/
-87
(5)
▁sw
▁simpli
▁roto
▁repres
▁poz
▁immer
▁hunt
▁coord
▁VER
▁Princip
▁Milk
▁Kent
▁Integra
▁Hier
▁Grim
▁950
▁217
▁176
▁0.3
tabelle
semantic
scolar
releases
privat
placent
phre
larla
islam
induced
icycle
gnati
gean
frigo
enkins
crate
conditioning
augu
ULE
This
Pubblica
OSO
NA
Do
COT
CCS
2.5%
/09/
▁tigr
▁shoot
▁regula
▁protestant
▁instant
▁inhibit
▁hybrid
▁fres
▁comunic
▁Skov
▁Scar
▁Rail
▁PC
▁FIT
▁FAR
▁Cast
▁Camar
»)
usta
ussa
tudi
trial
ssing
solo
slippe
shelf
scut
rider
recess
pul
ome
olata
ografia
ntific
mun
lera
invisible
inata
gust
fection
ditions
ador
You
Stat
SEPA
EIT
ARS
93
▁titan
▁slit
▁radar
▁foi
▁cristal
▁australia
▁angol
▁[...]
▁Tagi
▁Promo
▁ORGANIZ
▁Motors
▁Jon
▁Fär
▁Bé
▁78,
▁31.
▁198
▁191
▁156
uding
terminat
otovoltaic
ordinate
ooney
laps
grafiche
gomb
gga
corp
brothers
Seychelles
Prodotti
Pierre
HIM
ALLA
53
26%
1974
▁Sur
▁Sche
▁Review
▁Proven
▁ISO
▁4,5
▁225
▁1.4
whale
ubert
tenor
ji
imple
illas
iko
giver
elles
egne
chess
brackets
autre
appari
SH
Quad
Lo
Gael
GENERAL
Emergency
Domingo
CJ
1972
▁vaso
▁retour
▁ref
▁pivo
▁perc
▁necess
▁modifi
▁marche
▁elegant
▁conspira
▁Vida
▁Tass
▁Standard
▁Sard
▁Philip
▁Million
▁Hein
▁Elimina
▁Coordina
tò
two
tricks
tad
riel
plemen
mori
leni
itä
iii
fono
cordia
activate
PLP
OH
Economia
Commerce
CA
28%
/72
-85
▁polit
▁dispo
▁buss
▁Sui
▁Polis
▁Lenin
▁Bou
▁Bloc
▁Beau
▁79,
▁76,
uniform
traumati
teur
spirator
rus
ribal
redi
mpton
mango
hunter
foci
Uc
Lower
97
58
▁rara
▁mm
▁grade
▁gali
▁furni
▁furi
▁Meri
▁JR
▁Hey
▁Dub
▁Dati
▁DC
▁Comi
▁Box
▁82,
▁1,3
équipe
vetro
uk
timent
tachi
sean
rthodox
rraine
ristor
pla
ovács
olski
killer
ew
evite
estionnaire
dawn
consult
ccompagn
Priority
Mobility
Is
ALOR
▁temper
▁photo
▁flavo
▁Visa
▁Um
▁Thai
▁Rain
▁Product
▁Lé
▁Khar
▁DU
▁Buc
▁1990-
tracks
tation
sticks
spira
server
potent
pathy
onne
onero
nth
luminos
dynamics
clinica
aldo
SF
Passenger
CDS
63
20/
1-9
/06/
▁vul
▁vesti
▁nefa
▁nam
▁mic
▁hyper
▁hom
▁hake
▁fascina
▁avan
▁Wild
▁Sem
▁Leht
▁Later
▁Ever
▁Ass
▁Application
▁Ant
▁Ain
▁2:
torn
syndrome
orni
onica
multidisciplin
loads
fort
eninsula
ech
dige
dale
corrig
consultants
chard
ator
International
Imagine
IES
Guyan
EURO
55
▁summa
▁sim
▁lur
▁durum
▁apo
▁Wi
▁Stau
▁Mutu
▁Lis
▁Kalo
▁Europ
▁Bob
▁Bin
▁330
▁209
ventas
terem
nutrient
mene
lised
fix
escola
aux
TRA
TDI
SEC
Responsibilit
IDA
FG
ATT
337
▁translat
▁offici
▁nail
▁feu
▁felicita
▁blend
▁Somali
▁SAP
▁Popular
▁Mlad
▁Kra
▁Ibrahim
▁Fay
▁Cen
▁Baden
▁(«
viva
vette
sconti
revolt
rana
nomia
nesian
mour
mist
metallic
implement
ilioni
idare
dest
astra
assistente
agh
Rispost
Republican
Increased
ICI
57
▁velo
▁sonor
▁provi
▁preten
▁oligar
▁mande
▁jar
▁grote
▁cave
▁aromati
▁Trau
▁Theo
▁Ries
▁Patri
▁Orlando
▁Money
▁Marks
▁Marie
▁Actual
▁161
▁0,1
you
ungo
trucks
tras
tiga
stil
sili
renovation
peak
pata
nched
marxist
kost
izofreni
issez
illustr
goda
dentist
bere
SPA
SAD
LAVA
Alta
ANDA
-90
▁technic
▁swing
▁specta
▁senat
▁obes
▁hija
▁gel
▁galle
▁croc
▁coc
▁Joan
▁Grä
▁Focus
▁Fas
▁EL
ă
riches
propuls
opi
ophil
marin
lavor
euf
domestic
diente
cart
athlete
andri
abba
Protestant
Military
LOA
ALS
AEC
/76
▁victori
▁ush
▁tract
▁reven
▁mutan
▁mele
▁journal
▁jam
▁interface
▁fascin
▁Panel
▁Nutri
▁Harm
▁Asyl
▁99,
▁216
vous
ucca
protection
oven
ndices
manci
lash
identificar
hod
guan
fle
assa
asca
Siberi
STAT
Ma
BER
AAL
51
1.5%
▁snow
▁rog
▁garden
▁anda
▁Vladimir
▁Transit
▁Talk
▁Setting
▁Seit
▁Person
▁PRA
▁Medi
▁Horn
▁Disease
▁Close
▁Ash
▁1947
▁0.4
zzle
yrene
ws
welling
venue
utta
ropa
redir
raça
quest
onservation
imagin
health
finite
estri
current
construct
capitul
builder
brio
assis
arab
XIII
Prot
IO
ICHE
Holy
Empire
ERAL
CIA
Arrest
54
1999)
▁tap
▁sard
▁mister
▁groen
▁furniture
▁dispensa
▁Tara
▁Production
▁Previous
▁Nas
▁Majest
▁Kiv
▁GAR
▁Brug
▁179
▁03
▁(195
ál
vanda
strata
round
rofe
other
onera
metre
los
elding
eaded
ddington
crow
birth
aid
TTE
NFL
EPH
Bilbao
59
▁sho
▁rame
▁psycho
▁pasta
▁mort
▁mesh
▁incr
▁geologi
▁elefant
▁VITA
▁ROM
▁Pret
▁Oriental
▁Nicola
▁Credit
▁Banks
▁Arriv
▁88,
vestito
tracking
tiger
tenter
rings
pf
nez
maker
leri
ition
internal
inactive
enario
eche
compile
clat
arca
ULOS
LOS
ESE
COS
Amigo
AS
67
▁►
▁margari
▁captur
▁Wul
▁Volume
▁Toki
▁Sommer
▁Puch
▁Mio
▁Marine
▁Já
▁Dead
▁Chris
▁215
”?
yn
winds
welcome
valier
usia
umentar
titude
stro
sine
riana
parks
osita
ibrid
fensiv
fantasma
erness
erator
dov
cuola
clav
champs
canal
brick
Tous
MIDI
JUST
ID
HER
AMF
ABS
1-10
-2006,
▁spontan
▁registrer
▁plu
▁masch
▁lean
▁diamant
▁amateur
▁actor
▁Tou
▁TEL
▁Sven
▁Skinn
▁Lech
▁Employ
▁Contact
▁Commercial
▁Cio
ée
»:
thered
thala
size
riem
rating
orthodox
ober
gifts
eological
editions
donan
court
Ul
Prices
Peninsula
IE
GAN
African
74
72
56
.3.
,2%
▁trump
▁superb
▁shr
▁opin
▁nie
▁mapp
▁lente
▁dirigi
▁astu
▁affili
▁TOM
▁Spe
▁SUL
▁Pin
▁Pari
▁Gör
▁Bors
▁Assa
▁91,
xi
spaces
insider
fano
covo
certified
bitar
balta
VP
Strength
Math
MID
Lloyd
Gerald
En
Australian
137
-96
▁wet
▁reserv
▁matric
▁hull
▁hai
▁flam
▁fir
▁fig
▁const
▁amor
▁abund
▁Viol
▁Standards
▁Rem
▁Mik
▁Medicine
▁Kim
▁Implement
▁Guy
▁Coll
▁Canal
▁1955
▁17.00
▁154
voh
throat
sentiment
rali
personal
pag
mandante
manage
iler
hraf
harging
gegn
flame
fancy
espo
esotho
erige
dispatch
degrad
corda
asili
alytic
SMA
Economist
ANC
30/
1/
▁visi
▁spel
▁smi
▁hinge
▁filosof
▁cult
▁costum
▁compone
▁Soul
▁Parkinson
▁Parado
▁Motiv
▁Los
▁Full
▁Faro
▁Facilit
▁Defini
▁Call
writers
wildlife
warehouse
walking
vacua
trava
sky
redirect
rade
mò
ité
itz
gole
exhibit
captain
capital
bands
ashvili
antino
ON
Nicole
Example
CD
ART
1991)
-1991
";
▁vit
▁thi
▁tapp
▁taba
▁siden
▁prodi
▁premier
▁oppi
▁loo
▁feedback
▁bara
▁Stru
▁Sahar
▁Private
▁NU
▁Lott
▁Gy
▁Garanti
▁Fru
▁Fri
▁Electric
▁Down
▁Blo
▁AM
▁83,
▁338
ulia
strada
stern
span
sies
rti
phori
nudo
levand
impos
forma
fashion
electric
dir
cam
TEC
SME
GNI
ENCE
Cooperative
ATI
38%
-02
)]
▁temu
▁pes
▁natali
▁bass
▁archeolog
▁Schreib
▁Resources
▁Register
▁Peti
▁PR
▁OFF
▁Mec
▁Jam
▁Hass
▁FP
▁Equi
▁Cesar
▁Atti
▁94,
▁181
▁172
ère
works
turm
substan
shell
score
reviv
protected
ph
networking
ncement
limentare
jurispruden
echanism
ciu
cera
anguardia
amaro
ZI
RITE
Modifica
Fiji
ELLI
EBR
▁volg
▁slot
▁sans
▁reuni
▁reader
▁planeta
▁paradigm
▁migrat
▁lino
▁XI
▁Suri
▁Return
▁Ove
▁Number
▁Kaza
▁Introduc
▁Guide
▁FRI
▁District
valley
stars
squad
six
rep
marks
lags
inin
info
ias
evich
articles
Unit
MON
Ghana
CC
95
1).
▁tata
▁slim
▁mile
▁leather
▁exam
▁anal
▁Ty
▁Sime
▁Priorit
▁PL
▁Migration
▁Libert
▁Khan
▁Fé
▁Extra
▁Dif
xes
venant
variante
tol
support
shy
salita
rinne
nomic
muscle
lists
keys
ills
edited
char
cardinal
boarding
awake
antes
ams
activated
accountant
Tref
OPER
LAS
▁−
▁park
▁ml
▁demanda
▁bush
▁Task
▁Sah
▁Rena
▁Queen
▁Introdu
▁Integration
▁Football
▁Bai
▁Ay
▁3-4
▁10.000
▁1.6
▁0,3
zik
undred
three
stadium
ská
rits
play
pensi
ost
orchestra
oration
mision
memo
invern
hannon
gini
fiore
document
chloro
cerc
avoro
aff
TA
IEA
Dimitri
Anne
79)
52
13
1-13
0/80
▁sva
▁operati
▁mosa
▁grind
▁entertainment
▁demonstr
▁REAL
▁PO
▁Guardian
tubi
school
plane
pict
ontologi
lava
ière
hus
globo
durant
demo
cquire
chas
cade
auth
aina
NET
Gabon
CHE
Append
AU
ANTE
8/
21%
▁yok
▁urbanist
▁substitut
▁retard
▁pende
▁obvi
▁monta
▁fus
▁bang
▁Wier
▁Ug
▁Studie
▁Maur
▁Martín
▁Heat
▁FR
▁Cancer
▁Amb
▁222
wick
washing
troci
trance
telegram
stes
saga
reuse
rai
pid
mise
looming
interdisciplinar
imiter
ific
ics
gusto
grades
discover
county
constitu
cialis
cedo
bian
apa
aine
abi
Viola
UNO
JACK
ETT
DP
BLES
-24
▁petit
▁persp
▁comput
▁Som
▁Sander
▁Roche
▁Odd
▁Mole
▁Mitte
▁Ini
▁Evr
▁Block
▁Bangkok
▁272
▁1:
éry
ymposium
uota
rhu
repris
matching
gica
fertility
etxea
cross
atrocina
armar
TIR
RD
Har
Competen
Appen
73
44
▁zin
▁slap
▁revisions
▁papa
▁nebu
▁gle
▁dies
▁demoni
▁cele
▁Prepara
▁Mous
▁Kos
▁Jacob
▁Envi
▁Cape
▁CER
▁Big
▁AU
▁310
wich
visar
tines
solution
rent
rdening
pod
omotive
moud
morra
miro
litig
kas
ières
inten
headline
fé
fuente
flies
father
easy
disposition
bully
blur
bet
arden
UNI
Romeo
/2
▁valoriz
▁taxi
▁miet
▁compor
▁citi
▁asp
▁arteri
▁Sino
▁ST
▁Name
▁Klin
▁Kerr
▁Intra
▁Cook
▁Ceci
▁CAS
▁AC
▁96,
torce
tag
sword
stasy
skins
share
serum
rita
radle
only
ministratore
medication
gility
emplo
draft
dou
crumb
cesi
cchio
audio
aked
TTI
TRE
POLIC
MAC
HR
Guillaume
BIO
BET
Assessment
8.
61
20.000
-26
▁vet
▁turista
▁shari
▁robot
▁placa
▁pau
▁museo
▁moc
▁inflat
▁hitt
▁hag
▁cl
▁bur
▁barre
▁TRE
▁Sina
▁Off
▁Mary
▁Guarda
▁Conc
▁Alvar
▁Adria
▁13.00
▁103,
▁04
ş
ôt
verse
slick
sheet
rath
liver
lito
lini
ledere
havo
fosfat
ensi
distract
decin
cubic
cocco
bureau
bourg
bbed
aggregat
ZO
UTI
UMB
TORE
PR
MPI
MEA
ICAL
-99
▁schizo
▁rosa
▁mura
▁laten
▁blas
▁ale
▁Shi
▁Issue
▁269
vory
vitamine
variation
tous
sahara
rotti
riep
relato
principe
plicable
nut
ju
ionier
fre
dormir
diante
bacteria
awi
affa
Vivi
RIE
MPER
KÄ
Kenn
Kaufman
Irak
IPC
CCC
47
37%
1969
-86
-29
▁vibr
▁thermo
▁smar
▁mel
▁lou
▁esca
▁equivoca
▁comod
▁clic
▁bug
▁bale
▁awak
▁Wu
▁Waw
▁Square
▁Half
▁Gé
▁Camer
▁259
▁1944
▁113,
▁100.000
▁10-
ÓN
tran
solation
resse
quino
plantation
nfe
lac
ingen
immat
igo
ieu
ground
fati
eye
compartiment
ceramic
centenar
appu
antigen
ZG
NGA
LF
Faith
Come
CK
62
4-
1049
-2004
-03
▁sultan
▁palu
▁mond
▁maro
▁instal
▁inspir
▁hits
▁generati
▁gang
▁cher
▁brill
▁adj
▁Salv
▁SAB
▁Risk
▁Rie
▁Rapid
▁Platform
▁Luis
▁Loren
▁Lanc
▁GSM
▁Fant
▁Bern
▁Avr
▁315
▁201
▁194
workshops
terior
slots
sioner
refresh
ostent
nostalgia
mercan
martyr
ingham
cry
credi
cephal
URY
Malang
LIG
ERSON
BRO
Adopt
42%
07
-27
-2020
,"
▁rotati
▁lago
▁fon
▁cream
▁carbo
▁aby
▁Valley
▁UL
▁Teacher
▁Stori
▁SI
▁Rami
▁Oxford
▁Hun
▁Heck
▁Georgi
▁Delhi
▁Cruise
▁Alc
▁2014.
▁182
▁18.00
xor
tira
sconto
saka
resp
phe
multiplier
inas
immo
home
high
heid
gran
favourite
definition
ddle
criminal
borat
america
affitt
ROG
PÁ
Penal
MER
INI
GLIO
ASSI
32%
03
!»
▁vig
▁plug
▁pista
▁muc
▁dol
▁boot
▁Schö
▁Mach
▁Laga
▁Contribu
▁Comb
▁Cerc
▁Brez
▁Ace
▁109,
▁0.2
vendos
turna
though
stel
rature
phosphate
mat
lletti
iccia
gens
float
familiar
dian
attend
Treasur
Newcastle
NAR
Mal
MTS
MARCH
KIP
AVAL
AGRI
37
2),
▁wil
▁puntu
▁oso
▁nich
▁insect
▁flank
▁brutto
▁TRA
▁Sali
▁Rue
▁Pene
▁Patriar
▁Marino
▁MAG
▁Kho
▁Function
▁184
£
volve
tigue
thora
resistent
orolla
ocaine
obsess
ignorant
flag
elling
dient
cum
blood
binari
annan
ais
Toulouse
SOE
JES
El
1964
▁vien
▁smu
▁patogen
▁muse
▁composit
▁amplifica
▁Yus
▁William
▁Valor
▁Revision
▁Gand
▁Conce
▁Comple
▁Berger
▁193
uose
sie
scuro
scena
ritra
publisher
programm
popularity
perta
logging
lighting
leaks
ivoli
iding
hear
format
fini
ffa
eras
eli
drill
dash
affect
ONI
France
CULTURA
CO
Buddhis
ASA
▁portal
▁pastor
▁legaliz
▁hap
▁charm
▁Request
▁Raw
▁Ox
▁Note
▁Fal
▁Communi
▁Bra
▁Bho
▁98,
▁56.
▁1,6
▁1,4
whistle
triche
thus
thu
there
terne
sei
ropea
rilling
quor
ploy
parallel
ollow
nove
monet
misch
mel
mag
gues
furi
fratern
execute
ellow
ehran
dina
ceno
brata
bek
attributes
antagonist
abilitat
UBER
Rela
NIC
LONE
FF
ESAR
CES
CEPT
▁tran
▁smile
▁profet
▁mist
▁lut
▁gam
▁emb
▁bag
▁anim
▁amput
▁amar
▁advertis
▁Sor
▁Schm
▁SC
▁Pil
▁Oliv
▁Kitt
▁Hard
▁FINAN
▁Alli
▁4.5
▁10.00
xamination
translator
teering
swald
slav
sent
riere
pins
oti
muster
loving
iego
houd
glutin
globa
door
assignment
Test
SESSION
QUIN
Producer
LM
JEN
III
Holocaust
5.000
152
149
-35
▁tec
▁song
▁rene
▁ples
▁piste
▁obi
▁mors
▁interact
▁helm
▁evoluti
▁democr
▁cocktail
▁bl
▁Prev
▁CES
▁Berna
▁435
viz
visual
veil
tribune
ronde
rolled
ripi
rghi
psychiatri
profiles
ologic
ofici
nings
morar
kens
kelen
escapa
ellos
aspar
NO
LANE
156
064
/12/
▁neutr
▁mire
▁libre
▁lava
▁fantasy
▁exempl
▁cook
▁cena
▁Vaz
▁Swi
▁Strau
▁Sofia
▁Self
▁Raf
▁Potr
▁Onde
▁Ib
▁Hed
▁Glen
▁Frau
▁Fo
▁FER
▁ENV
▁Dori
▁Barbara
▁204
▁2025
Ñ
Í
uvr
toir
tiff
tender
special
sil
sem
rard
propon
paradigma
paper
oppa
noto
multi
loque
lone
itiner
fly
clou
ceptiv
camera
box
alene
United
RIAS
Ol
CHAR
Around
ANTI
66%
▁stili
▁sob
▁riad
▁posting
▁juste
▁fom
▁bli
▁Urban
▁Town
▁Tour
▁Sardi
▁SET
▁Prov
▁Park
▁Orange
▁Obi
▁Low
▁Letter
▁Hansen
▁Fast
▁ES
▁Different
▁Cout
▁Columbia
▁Cea
▁Airlines
▁281
▁211
▁1929
▁186
world
wash
tiv
smell
screen
scarpe
ref
overnance
mura
mandri
lease
intra
graver
geva
dagat
ceptions
cele
calde
buck
bits
artisan
ardiovas
Genetic
ERMAN
804
/70
-01
▁wiel
▁truck
▁sequen
▁programs
▁participa
▁mand
▁herb
▁heal
▁ghe
▁fans
▁birthday
▁XVI
▁Vene
▁Shakespeare
▁Ramb
▁Protest
▁Lac
▁Conve
▁CRO
▁Bartol
▁Amin
▁97,
▁255
▁207
▁1980-
▁197
▁1915
▁164
viewer
verano
vely
urgeon
saint
practice
pproximat
offs
nts
matur
logue
lagan
kir
hrine
gesi
corners
compilation
bomber
biliti
UNION
Statistics
Habitat
Economy
28
1-15
▁sma
▁signif
▁romp
▁oste
▁ministr
▁mete
▁lond
▁kne
▁heterog
▁explora
▁contes
▁Xiao
▁Util
▁Ut
▁Trading
▁Schi
▁Padr
▁PSD
▁Napoleon
▁Liu
▁Jud
▁Introduction
▁Industria
▁Hano
▁Ferm
▁Dip
▁CH
▁Bible
▁AG
▁425
▁35.
▁192
▁174
tlers
tenant
road
ox
operator
nni
nelli
logramm
irano
heikh
gish
geo
fresh
evas
etz
costa
comfortable
cek
RIO
Persian
OCH
Changes
Catherine
CIAL
BRE
BES
769
3.000
169
.2.
-39
▁prece
▁plag
▁neutro
▁neck
▁mur
▁menu
▁lock
▁convers
▁chip
▁champagne
▁Wort
▁Start
▁Ros
▁Gonzalez
▁Events
▁3000
▁101,
▁1.1.
▁1.1
vestig
utlu
seven
sett
samples
russian
ltava
lama
lagna
impin
ibil
holm
fali
clor
clair
cept
annot
alous
aderen
PAC
NDEZ
Informazioni
IRE
EDO
BAR
147
024
▁terapeut
▁provoc
▁orbit
▁nec
▁migr
▁microbi
▁flower
▁flori
▁facult
▁divin
▁chlor
▁Sorg
▁Novo
▁Must
▁Les
▁Know
▁Ferre
▁Copp
▁Agen
▁293
▁195
zien
zai
universal
teau
soft
small
singh
scriptive
positive
pinto
pets
owning
onsensus
nursing
ntercontinental
neutral
mell
lotto
incant
eze
escence
elen
dossa
domino
cipient
ciar
animi
altern
Una
TZ
Near
ITH
Energi
Broadcast
AVOR
ARN
76
2).
-32
,9%
▁pitch
▁percept
▁misterio
▁literar
▁insa
▁gitt
▁gan
▁astronomi
▁Sett
▁Rey
▁Prince
▁Little
▁Kennedy
▁Bowl
▁3-3
▁262
wi
was
voet
vesting
town
sprit
rse
rbi
rawler
rava
putat
ompetitor
olog
né
news
mora
ivity
ius
inheiro
greb
copia
biti
anga
achment
abbu
Ug
RCA
Marcos
MSI
LR
ENS
DY
65
200
▁puls
▁parking
▁lectur
▁hub
▁heroi
▁grim
▁dava
▁Securit
▁SF
▁Quelle
▁Porta
▁Poli
▁Norm
▁Matter
▁Formula
▁Demo
▁Cambridge
▁Broad
▁37.
▁337
▁32.
▁226
▁112,
▁108,
▁0.0
▁(1991
ú
voter
twist
ssia
shasa
ppm
pointer
pino
liners
igliano
hent
grave
ganti
ebbi
cardia
bliche
bie
assessor
asqua
ah
There
TB
Servo
QUER
Peter
FRS
EDT
DEF
CHER
Biotechnolog
11.30
▁reda
▁ornament
▁magna
▁dag
▁chat
▁aromat
▁Wil
▁WO
▁Sugar
▁Siemens
▁SO
▁Proto
▁Package
▁Marseille
▁Legion
▁Holt
▁HER
▁Financi
▁Family
▁Ese
▁Corre
▁Charle
▁Bet
▁Ag
▁295
▁261
▁227
toxicit
tarian
tamina
rini
reature
rays
randa
queue
problem
overnat
operativ
ool
omentar
noves
nione
mother
lista
fiable
erte
epi
ebel
dott
disciplinar
dinner
cisi
bubble
bilisi
barak
RIES
Philippe
NATO
Latin
IDE
DAL
Co
CAM
90.
-60
-2000
▁torrent
▁ski
▁materializ
▁gratuite
▁esti
▁china
▁amare
▁Regi
▁Reading
▁NE
▁Mod
▁MEM
▁INF
▁Distribu
▁Deutsch
▁DON
▁Cristian
▁Bratislava
▁Bes
▁Amazon
▁303
▁274
wall
utes
umenta
terres
televisio
stiller
sparing
slug
sit
radun
rades
patia
orra
lsson
lamp
itrate
isette
igni
ient
ghost
funga
explod
ein
cull
colonia
cena
bæk
alo
Skop
PRICE
DF
Bohu
APP
/01/
.—
-84
▁teste
▁piramid
▁pell
▁pair
▁metafor
▁initiati
▁homeopat
▁fantasi
▁elev
▁delta
▁bul
▁Venet
▁Tru
▁Substan
▁Protect
▁Principal
▁Pri
▁MIL
▁FM
▁DAS
▁Clo
▁Chicago
▁Bord
▁Balk
▁720
▁283
å
zy
trage
rugge
rocodil
ondra
nub
mill
liter
legge
kovsky
intro
illary
herry
good
firma
erial
cuff
climb
canta
amment
allow
algam
YER
RTE
RAW
OPO
OMI
Frederick
Commander
CL
Bahrain
BT
??
6).
365
1993)
-16
!"
▁vocal
▁tout
▁swo
▁sug
▁stab
▁shipp
▁retra
▁penta
▁metr
▁idiot
▁halve
▁franchis
▁bust
▁ascend
▁Weiss
▁Sc
▁RAI
▁MEDI
▁Karim
▁Insurance
▁Garda
▁Fuji
▁Cec
▁Carne
▁Cano
▁COR
▁7.5
▁296
▁187
▁0.5
write
witch
vice
tian
slice
shark
random
product
prob
plet
pels
olib
oina
norm
miste
memorial
jet
ites
frir
erson
editar
drug
agem
YES
Württemberg
TRADE
NOTE
COST
Balear
500.000
21
...»
-92
-45
▁viral
▁preferen
▁patriarc
▁nomin
▁marker
▁intellig
▁humanist
▁honor
▁hero
▁gat
▁depende
▁chart
▁borg
▁XV
▁Swed
▁Sif
▁Perma
▁Om
▁Mil
▁Lor
▁Incom
▁IC
▁Gus
▁Get
▁Fata
▁ESC
▁EMI
▁251
▁178
vii
ulis
uglia
thick
scholarship
rés
rith
ranking
pendent
pano
ordan
lope
lavour
junct
hull
gitar
gener
fel
essant
community
allergie
alais
abria
TI
NEL
Murphy
Louis
ELEC
Cameron
CTS
CMO
8/7
57%
1991
1968
175
160
146
1-11
034
/2)
▁spora
▁server
▁hop
▁gira
▁comanda
▁calend
▁barra
▁Zimmer
▁Step
▁PP
▁Mala
▁MU
▁Lingu
▁Ili
▁Hill
▁Gama
▁Fried
▁Antar
▁1.000
uerta
tingu
surreal
stiti
spear
sistance
runner
rel
rail
orpora
olls
lough
loni
lishment
jo
idney
geni
eña
elmann
dò
converse
conceptual
articular
angles
anach
allah
TES
STATE
OTTO
National
KLA
KKE
Historical
Chi
Car
CDA
Andrei
All
21.00
16
-31
-21
▁ventila
▁silver
▁prot
▁omni
▁museum
▁habitu
▁esto
▁censu
▁bv
▁Ye
▁Une
▁Tribun
▁Ria
▁MAI
▁Learning
▁JAN
▁Fax
▁Eli
▁Contest
▁Aly
▁Agui
▁420
yarn
uzel
users
ucho
sorting
siger
ribe
paradise
ord
nvoice
monopol
medical
llari
itanium
insign
iau
giri
fingers
eaten
atchwork
NHA
Marrakech
Intervention
IF
Guadeloupe
CIO
Agree
ARI
68
43%
200.000
165
!)
▁wash
▁prin
▁patrioti
▁neutraliz
▁nan
▁emul
▁ciber
▁centrifug
▁Wine
▁Virginia
▁Thé
▁Santo
▁Line
▁Glo
▁Fei
▁Faj
▁DDR
▁Arma
▁Ambas
▁183
▁1500
▁1.7
zine
zani
steal
south
slike
rmed
punctu
programme
petit
ovskaya
nuncio
malga
ić
igue
hall
frames
elegante
ealing
dansk
cumen
cour
conju
bridge
booking
allergen
TICA
PN
KEL
Dan
DES
Articles
409
20.
▁Še
▁tutor
▁turbin
▁geometri
▁archi
▁akin
▁Wilson
▁Tele
▁Sig
▁Scu
▁Philips
▁Make
▁Invest
▁Hy
▁Grec
▁Campin
▁Assistant
▁Academy
▁34.
▁245
▁105,
▁08
wal
vedi
vas
uolo
tin
therapie
shining
shade
roz
pondo
pero
patient
office
nvelope
nearby
mina
mack
liste
kjær
fum
eijer
curve
cologist
cedent
burn
arto
aphor
ande
amino
acido
ZION
ZIO
UCH
Scots
SCRI
Parlament
LON
Guerra
Gli
French
EIRA
Disable
Congrat
Assembl
ANGER
AFTA
8).
7).
279
094
-83
-13
▁vid
▁sunk
▁structur
▁pup
▁parasit
▁legs
▁hobby
▁flash
▁ethn
▁Source
▁Son
▁Provide
▁Nam
▁Gro
▁Comm
▁Claus
▁271
ört
zir
verbi
uchar
tinta
tig
strati
ssurance
puta
perti
naked
mbria
mails
humanit
hemp
fections
errez
entries
decret
cò
coran
cile
bitum
arlsson
ardiovascular
VED
Pharmaceutical
ORS
IME
89.
-100
▁prope
▁outlet
▁metall
▁meg
▁fotografie
▁dole
▁coh
▁cava
▁carton
▁array
▁Strategi
▁SOS
▁RF
▁Polici
▁Parma
▁Opera
▁Levi
▁GRA
▁Francis
▁Estre
▁Cristo
▁Cars
▁Bli
▁Beli
▁Aud
▁36.
▁20.00
▁1.8
▁1,8
zeli
voltare
vestiti
swap
rese
pick
oze
onta
ondt
monia
migrante
lubri
loo
linker
gani
extensions
europa
eg
composite
chip
catalog
buff
antina
Maurice
DOCUMENT
Converse
COI
BE
Ag
▁trailer
▁restaurant
▁rehabilita
▁leuk
▁intrig
▁frea
▁estim
▁dance
▁column
▁anonym
▁Tev
▁Rud
▁Nico
▁Mini
▁IX
▁GEO
▁Bahr
▁Agn
Ø
wa
venezuela
usted
suhe
solat
sincron
sau
rish
quel
proletari
plates
papa
olette
mmediate
liding
lidi
guine
groups
gerne
genio
fect
erings
eferendum
drog
dig
cognition
chach
bava
bara
alpine
Pubblic
ONNE
Mauritius
GOL
Ent
ERI
Comit
COD
159
$
▁voyage
▁volan
▁tall
▁slide
▁repeti
▁psycholog
▁pop
▁ord
▁loft
▁inn
▁expon
▁explor
▁acro
▁XII
▁Stam
▁Ruh
▁RAP
▁NORD
▁Guadal
▁Grund
▁Figure
▁Esport
▁Dick
▁Cultura
▁Colli
▁BL
▁BAN
▁Alas
ège
zes
women
wheels
spec
sery
orini
interactive
industry
ifty
gatti
floating
finest
filip
expuls
dzi
cf
botti
aty
RG
POSI
OFF
Networks
LARI
INO
IN
Giorgio
EST
EOS
Canada
CARDS
ANAS
99.
77)
181
14
▁restaurants
▁gro
▁dl
▁Wai
▁Schaf
▁STAT
▁Ren
▁Log
▁Live
▁LU
▁440
▁219
▁20-
utar
sembla
sandra
riza
quid
porta
pese
package
mandarin
main
insu
illo
hadra
gren
entrer
cete
cani
altru
STITU
Mohammed
LER
IPO
Fiscal
Ernest
1995)
1994
-95
▁ye
▁shoe
▁scur
▁ori
▁macer
▁impregn
▁dys
▁celle
▁Trav
▁Stran
▁Ney
▁Manifest
▁Magu
▁MARC
▁GAL
▁Francisco
▁FUN
▁Book
▁Anni
▁39.
▁(7
wilde
utin
traction
start
seca
saur
rve
romano
resources
ransi
pairs
omet
lose
jihad
individual
fried
ewe
ervan
entai
dolph
colte
civil
application
aking
affiliate
WORK
THERM
TAS
MENTI
Louise
Evaluation
DU
CCP
Behind
▁tomb
▁spec
▁sample
▁priz
▁extr
▁curs
▁acus
▁Suh
▁Status
▁Schult
▁Sain
▁Rag
▁Nin
▁Net
▁Boo
▁BEA
▁Assu
▁Agric
▁43.
▁2,4
▁07
őri
ábor
thane
thanas
sober
rón
runk
rui
ozza
ostra
ncident
mus
mol
mography
kyri
iotis
intang
ids
hire
help
gnat
formative
culata
ctly
coagul
circular
bica
berries
aren
ardie
Werner
ECONOM
Brandon
AIS
51%
5-19
19.00
17
08
-3
-14
")
▁vedi
▁paz
▁moon
▁kilogram
▁galvani
▁fake
▁doma
▁diabeti
▁contin
▁button
▁Woj
▁Wars
▁Sca
▁Sax
▁Münch
▁Max
▁Marty
▁Lund
▁Language
▁Knight
▁Inte
▁Fish
▁Erik
▁Em
▁Bordeaux
▁Abi
▁5,5
▁229
š
Ó
zoni
wohl
vul
tirer
stati
sponsors
simplifica
pyramid
punt
perne
orrend
ollah
occi
nismo
ndari
metallo
llende
iri
hrer
functionalit
formular
entry
education
cushion
cromo
chini
cana
bels
auctions
adulto
abad
NEY
Dominican
75
52%
49
34%
179
176
109
-28
%),
▁sgr
▁sentimental
▁restaura
▁faz
▁elit
▁dorm
▁chest
▁bolt
▁Thi
▁Só
▁Sham
▁Rhy
▁Mera
▁Kat
▁Gom
▁Erz
▁End
▁Deal
▁Check
▁305
▁214
ök
zinc
viewing
vety
verseas
tex
tania
staff
spring
sign
sensation
seam
quito
poesi
ombe
obedien
niere
netti
mpar
liti
lgado
ioc
imé
fede
erhard
dental
dag
couche
black
arin
anthrop
acid
acent
VAL
Une
Qatar
ENTE
EDI
Castillo
BERT
98%
3).
1612
155
▁targ
▁spu
▁sir
▁hinter
▁feat
▁apa
▁antivir
▁aluminium
▁Zeitung
▁VEN
▁Travel
▁Silvi
▁Senior
▁Prior
▁NI
▁Mans
▁Guil
▁Gong
▁Delta
▁CONTRA
▁BE
▁Avi
▁434
▁268
▁102,
▁1,7
wiele
ugly
tium
tengan
tec
sat
rhythm
pau
osca
opian
novo
monolit
mera
kes
iro
illumin
ikas
iesta
iaggia
fla
featured
farin
erosol
deris
chers
azo
ambiental
Single
Prezzo
Omar
OTH
FONT
ETTE
ETRA
EMENTS
Cavalier
CORN
Animals
Added
AVV
AUD
467
1967
▁sors
▁satu
▁rob
▁orang
▁lav
▁lai
▁gy
▁diser
▁cov
▁azo
▁amis
▁Web
▁Stor
▁Stein
▁SM
▁Particip
▁Magna
▁Jia
▁Indica
▁518
▁1932
▁111,
ullah
taxable
tatta
soc
shot
rapped
ocente
nor
mperi
maggi
lupo
letta
legar
kering
investir
inda
illion
igne
ibus
hit
ense
cz
creative
chili
boring
avio
atrimoniale
assist
arlsruhe
antic
ammen
activation
accin
SEE
Opening
Nicolas
Mohamed
Lecture
ITO
IBE
Günther
EMC
Am
49%
46%
-75
▁simp
▁sarc
▁plum
▁islami
▁humil
▁graz
▁ano
▁Valent
▁Ser
▁Seoul
▁Radi
▁Label
▁Help
▁Event
▁Deci
▁Corri
▁Combin
▁Bild
▁ARE
▁232
wheel
week
wazi
wamp
vé
ury
unting
oznań
ostro
nam
motor
monitor
marche
manov
lò
language
knot
issi
fada
exploit
estone
erda
empion
demos
cognit
cks
apelli
animate
analyz
WAR
Republika
Qua
Probab
New
NAL
LEI
Ky
Include
IMA
Fate
FIL
EVO
Derby
DDA
Confess
Cannes
Attention
5.30
464
300
133
(80)
▁vapor
▁quotes
▁pedi
▁normaliz
▁neat
▁monast
▁marc
▁males
▁grup
▁gluten
▁cruise
▁auxili
▁ada
▁Taba
▁Russ
▁Practice
▁OR
▁Kiri
▁Jaya
▁Henn
▁Cru
▁Consol
▁Carp
▁CT
▁930
▁690
▁375
▁2,3
▁1943
▁1938
▁1936
wagon
vendu
universo
uario
tower
thro
symmetr
series
serbe
sacerdot
rmour
rew
regula
plice
nature
mics
luminio
ilingual
hospitality
flagg
enchant
ect
directory
delinger
carro
basics
appella
angere
WI
TV
PMI
ORO
MIK
LEN
Jak
INE
Henderson
Granada
ESTO
ERA
Cambi
8-19
56%
30.000
1993
-04
▁Ρ
▁veteran
▁palm
▁nun
▁neve
▁mouse
▁mich
▁leasing
▁isteri
▁improvis
▁fide
▁fad
▁emp
▁casino
▁brown
▁TR
▁Shell
▁Rec
▁Practic
▁Poh
▁Molo
▁Mis
▁Lista
▁Lage
▁Jobs
▁Hack
▁Brief
▁326
▁1920
▁10-15
zal
wave
warte
voor
vigil
utical
tun
titudes
tendimento
presentation
possess
pollo
pas
museums
mperor
llegar
licite
latitude
ivista
itas
interna
impian
helme
fonden
elpful
egger
eers
eck
dro
diario
companies
cider
argento
apertur
VD
SYS
SSL
NES
Maggio
MIR
Learning
KOU
Im
Herrer
GHE
ECTION
Bar
BR
AINE
?)
145
041
-36
-2009
▁sari
▁renova
▁pregn
▁poster
▁obje
▁numera
▁mela
▁mane
▁dard
▁contato
▁beh
▁Rang
▁REG
▁Poly
▁PU
▁Organis
▁Mercedes
▁MUS
▁MET
▁Lit
▁Exist
▁DES
▁Audit
▁298
▁297
▁234
▁212
ushki
strasse
salin
room
rach
mur
ken
istributed
ioli
ificio
hma
heroes
ennial
embro
eghe
chleswig
bora
aroo
Sara
Privileg
Infrastructure
Forward
Eu
ELIS
ALT
44%
300.000
043
-2005
-2002
▁tag
▁plante
▁phyto
▁oliv
▁oh
▁mus
▁fotografia
▁bent
▁ambulan
▁alfabet
▁absolv
▁Zi
▁Yel
▁VAL
▁Texas
▁SP
▁Regal
▁Permi
▁Oh
▁Nov
▁Mother
▁Ground
▁Floo
▁Corti
▁Beng
▁365
▁2.4
▁0.8
user
upa
transparent
sleeping
scos
ronia
rabbit
portale
piment
orologio
ompensation
ntar
master
loso
liner
holt
haling
goya
continue
apple
ancione
WED
Verona
Vener
Riga
RET
Guido
GET
EAR
Diverse
189
0.1%
-91
▁workshop
▁trot
▁justifica
▁glu
▁gem
▁especial
▁coli
▁bite
▁altern
▁STA
▁Ol
▁Lima
▁Lah
▁Giv
▁Formul
▁Flex
▁Arch
▁Ahmed
▁Adams
▁291
▁285
▁265
▁213
▁208
▁119,
▁115,
▁1.0
who
wering
vore
view
tkins
ternity
strong
said
rusting
roi
report
pello
ocl
ociété
numeric
notti
ndar
fact
eagle
eacon
crab
connect
clus
centimetr
axes
andi
ancia
amping
amid
Understanding
UES
Terry
Sender
STRIA
SPAR
OUL
MO
MBRA
IMPORT
EBER
DOL
DD
Campaign
8.000
779
62%
29%
1971
1966
1441
117
/07/
.55
▁wins
▁tuo
▁tea
▁servici
▁lime
▁fold
▁dren
▁constru
▁chips
▁artist
▁Tallinn
▁Slav
▁Samo
▁STAR
▁Premier
▁Pill
▁Pedro
▁Patient
▁Liste
▁Give
▁Dini
▁Counter
▁CR
▁COMM
▁AMA
▁33.
▁309
▁284
xact
veiled
utor
uma
tub
touche
thom
terrier
telo
sir
scris
ringa
olcano
lani
kroner
iberian
garra
ethyl
emberg
elipe
dorff
confirm
cats
calf
bow
biology
allo
agile
actic
Traditional
Straw
Srpsk
RIS
RED
Preparation
OI
OBER
Let
Italian
Early
BM
Academic
55.
40.000
318
237
"?
▁windows
▁terti
▁sugg
▁respon
▁nose
▁militan
▁lib
▁castell
▁brut
▁XVII
▁Visit
▁Verso
▁Torre
▁Sh
▁Quot
▁Prem
▁Potter
▁MOD
▁Lav
▁Kal
▁Ideal
▁ID
▁Hiz
▁Helle
▁Gonzal
▁Aqui
▁58.
üm
ónia
wings
sound
req
query
phal
oct
meter
meier
lix
kler
icio
eville
erman
effer
dollar
discipline
converter
consultant
citar
cents
cellulos
WEL
UME
SOCIAL
Qual
Oil
Facult
Che
ADY
220
185
1-19
▁Å
▁wok
▁victo
▁uma
▁thé
▁sè
▁stabi
▁renun
▁posa
▁locu
▁intui
▁fui
▁filters
▁caval
▁alternat
▁Volta
▁Savi
▁Py
▁Pic
▁PART
▁Medium
▁MEN
▁Lar
▁Guin
▁Cardi
▁Cami
▁Cad
▁Bell
▁224
▁2018
vidence
vangi
tubes
trico
tribe
toxin
tiers
tat
sult
strava
str
sinda
sela
sants
rusi
running
rige
refu
rack
pie
pendant
osaic
now
madi
lumber
licious
lau
irt
gusti
grana
genius
fed
dul
dim
diamonds
curar
cen
brook
blanche
URA
UK
Segui
PV
PET
MIRA
LEA
INDU
Green
CHR
139
134
▁spam
▁smer
▁sanitar
▁resur
▁physi
▁nostalgi
▁malsa
▁chill
▁TB
▁Segur
▁Salt
▁Roj
▁Rodríguez
▁Punt
▁Prefe
▁Persone
▁Palma
▁Ou
▁Novel
▁Matte
▁Laurent
▁Irak
▁Frei
▁Fight
▁Emma
▁Elev
▁Edit
▁Conf
▁BARR
▁Aber
▁626
▁5-
▁48.
▁302
▁258
yala
wido
veni
unghi
terrain
rela
pli
pens
orriso
ochi
nihil
nh
mira
ministeri
mates
lotteri
lish
ixtures
ictim
fruit
estan
eppo
dispos
decim
coca
capita
bruc
borough
baston
Render
Really
RM
RF
PSI
PM
LUN
ITTO
ILLI
Hassan
GAU
EF
Domestic
768
48%
29
▁wi
▁tail
▁studier
▁spy
▁specificati
▁simplifi
▁regenera
▁pulp
▁monoton
▁machin
▁labo
▁hei
▁aho
▁adam
▁Wy
▁Tit
▁Serge
▁Pana
▁Mats
▁Hé
▁Hon
▁Found
▁Done
▁Digital
▁Death
▁289
▁273
▁253
▁241
älä
vinho
velo
varsel
udicial
turing
tivity
rusha
rude
petto
js
isterna
intercept
idem
hey
guro
guides
gill
enta
ellini
elic
dicen
costume
bli
awyer
anci
TNI
RICH
Kenneth
IST
HDTV
Employee
ETTA
ASE
AA
72%
7-19
486
4.000
239
174
12.30
(2000)
▁wr
▁verse
▁tamp
▁simula
▁prognos
▁pend
▁pann
▁grab
▁formaliz
▁fixe
▁edit
▁departe
▁carr
▁brigad
▁Sharm
▁Shah
▁Provid
▁Property
▁Petersburg
▁PEN
▁Mass
▁Map
▁Interpret
▁Info
▁Diplomat
▁Diff
▁Dami
▁DEP
▁Communications
▁Carbon
▁Appr
▁Ang
▁7,5
▁279
▁267
▁1789
ém
variables
uire
tuin
tropic
tria
talanta
should
rosy
registrar
recht
ragu
polling
mén
must
ipation
insula
ides
habitat
foul
claw
bbin
barra
adania
University
Tra
POV
PCC
Nice
Mi
ITTE
ICAN
Ger
ERN
EPUB
388
265
01
/11/
-300
▁vall
▁seme
▁protesto
▁perfection
▁pate
▁nest
▁interrup
▁fag
▁empo
▁cogno
▁chic
▁casca
▁capa
▁bacteri
▁Week
▁Toronto
▁Tiran
▁Tiger
▁Shu
▁Reich
▁Pian
▁Music
▁Marketing
▁Lle
▁INTEGR
▁Gond
▁FERR
▁Double
▁Blanc
▁6,5
▁520
▁345
▁331
▁311
▁287
▁276
▁1941
▁110,
woods
vides
uvant
toro
spelling
scene
satt
rido
painting
nero
mb
major
learning
jury
informatic
hill
gueira
fumi
foga
focus
ferente
eterna
enous
enbach
elaborat
eetings
ecki
eapons
dria
clean
bona
berra
alan
WE
URE
Transition
OIC
May
ISE
ERRE
ECE
Century
AM
AFF
822
729
17.30
154
1244
1-14
▁pige
▁lips
▁hun
▁fron
▁faci
▁cili
▁asiat
▁Zu
▁Trojan
▁Stop
▁Sharp
▁Sciences
▁STE
▁REGI
▁PCI
▁Nur
▁Move
▁Mine
▁Lack
▁Hitz
▁Formal
▁Fonte
▁Disse
▁Corp
▁CAL
▁Agi
▁3:
▁38.
▁286
ypsy
vetta
vai
tuning
trophi
trod
suite
sellers
redig
patrol
pani
orius
oirs
niego
mov
mobile
meters
lus
intake
iguri
hola
heir
grafi
formativo
fato
fas
dorp
domeni
diction
ching
century
cales
books
bbe
asian
also
acchett
abil
TY
TAN
RAF
Politics
Pascal
PUBLIC
Nottingham
MIN
MCO
MAG
Luxembourg
HA
CSI
Amb
AG
82.
183
▁yellow
▁pediatri
▁palp
▁laser
▁Vla
▁Rush
▁Raci
▁Passe
▁OUT
▁Mountain
▁Motor
▁Marko
▁Ltd
▁Dare
▁Cri
▁Clean
▁Ayu
▁Astu
▁Alca
▁322
▁282
▁249
▁2,2
▁15-
áš
unzi
practic
ppy
opathy
nik
moth
mosque
mid
mbled
lapse
iversity
isin
hum
gateway
fonia
fairy
ensor
edonia
editor
draw
dopo
crunch
corporal
cipit
chowski
chico
calz
bolli
annibal
angelo
PCA
Migrant
María
MATU
LLER
HY
Fernando
Diyarb
DOM
AGO
259
23
-23
▁tumul
▁supersti
▁shal
▁seller
▁prono
▁parameter
▁pamp
▁optimist
▁nazi
▁metod
▁mann
▁hook
▁gelat
▁fel
▁dish
▁dise
▁compress
▁compani
▁candid
▁bona
▁arom
▁Scot
▁Rov
▁Robin
▁Mount
▁MS
▁Kac
▁Inso
▁Huh
▁Gay
▁Conte
▁Casal
▁Babe
▁Anda
▁106,
▁0.1
white
weed
vella
uze
unicipality
tudes
tours
tola
tirp
soap
sian
rounded
roni
rchandise
promo
pleta
owner
oster
ocabulary
obliga
melt
mars
lipping
leone
knee
imperator
hir
hat
gross
extravagan
dont
cooking
chy
cclesia
cane
buti
blo
bano
awards
aliente
ained
advertise
Urge
TINI
Regina
RT
Poor
Loire
Impos
INTO
Enrique
CP
Advoca
ARIO
AFC
97%
6-0
53%
49)
4.30
190
.03.19
-38
-06
▁wire
▁tarta
▁tam
▁reporter
▁rata
▁prophe
▁poeti
▁orde
▁gor
▁favo
▁explo
▁Sov
▁Promotion
▁Micro
▁Kiss
▁Kash
▁Indo
▁Feb
▁Bota
▁278
▁196
▁1933
▁06
yter
validation
uoc
ttle
toleran
sul
sty
stretch
streams
source
sogn
sic
rún
rroga
rik
restart
races
prophet
pellen
nista
lotti
jah
imata
icki
facture
ettava
etni
estava
erine
dra
descent
denne
couple
cida
centro
candal
behov
anctuar
abilitati
WC
Sign
Saxo
Programm
PIER
More
Knowledge
IPE
ETE
Dominique
Cristiano
96)
2,5
142
100
-73
-2012
▁Ν
▁topp
▁refor
▁puer
▁pela
▁lampa
▁estat
▁diete
▁defens
▁chili
▁borr
▁als
▁Tian
▁Refer
▁Ray
▁Proper
▁Plans
▁PROGRAM
▁Gott
▁Gali
▁Construction
▁6.5
▁47.
▁312
▁30-
▁266
▁263
Á
xon
verne
ticare
tanian
sonic
silla
sets
rompe
recycle
prayer
owl
olana
nine
monumental
libreri
inescu
immobile
hra
gradable
fg
fail
devo
calc
amatori
aide
VV
PF
MES
Impact
ITU
IATA
Holstein
GE
Fond
Demand
Caterpillar
CQ
CPI
Bravo
Advertising
AL
98
32
31%
235
1965
173
1035
1);
-11
(91)
▁År
▁revela
▁ranking
▁porno
▁navy
▁lob
▁limpi
▁hon
▁gelo
▁galop
▁fem
▁domini
▁disponib
▁dic
▁condens
▁cli
▁Viet
▁Verg
▁Tin
▁TU
▁Systems
▁Quadr
▁Midi
▁Mes
▁Infla
▁Grau
▁Garant
▁Fara
▁Energia
▁Brother
▁Bjørn
▁Arti
▁Activities
▁1,1
▁0.6
yev
von
verride
veld
uz
turtle
trofe
terie
strane
stellar
rók
resisti
promotions
phyl
orismo
ntellectual
mão
minal
là
last
insurance
faring
fabet
exil
energi
devam
coral
chirurgic
bust
base
azzurr
adiz
Words
Wolfgang
UPI
Positive
Peking
OLED
MAE
Gestion
BRI
Abdullah
ANTON
778
67%
295
-82
▁Ó
▁tampon
▁sym
▁swa
▁sar
▁ret
▁followers
▁email
▁dilat
▁cun
▁america
▁XIII
▁Try
▁Sue
▁Poten
▁Points
▁Pere
▁MEGA
▁Hand
▁Ham
▁HO
▁Garo
▁FO
▁Exclusi
▁Bouw
▁BP
▁560
▁5000
▁4:
▁410
▁248
▁246
▁233
▁118,
▁0,9
▁0,8
▁(198
üter
words
vision
vement
ultra
ubia
tunnel
tedra
són
strategia
silicone
shine
section
rundt
rule
ror
relation
redite
ravel
pulse
pple
nife
nasty
mek
marathon
lyn
lighter
ireann
ipso
gist
filtration
elieve
drums
bravo
VOC
RL
QUAR
Karel
Ivory
ITA
GIS
Barbados
Banking
ATTA
ACHI
82%
168
138
1,5
038
.89
▁yi
▁vibrat
▁verbo
▁spir
▁pier
▁meter
▁magnet
▁gent
▁für
▁Zee
▁Tela
▁Prop
▁Prevent
▁PROCE
▁Ost
▁Mitch
▁Mater
▁Marz
▁Ken
▁Honor
▁GL
▁COL
▁CI
▁Bela
▁256
vapor
utsourcing
updates
ulcan
then
sumpt
sometime
sio
scans
rodo
riz
risa
presenter
presentations
perro
pend
organiser
onomi
ongan
ognac
nights
metric
medien
mandat
lobo
lhe
isini
impia
igna
guen
grov
fus
estre
emiconductor
edel
conte
compression
ckel
cioni
bath
atos
andina
aggiornament
Stanley
SAN
Registro
Oc
ODA
Lobby
Jamaica
Industri
IAN
FTP
FAR
DICE
Colin
Cart
Bring
Bergamo
280
250
148
11.
-2
":
▁tron
▁snu
▁reflex
▁ou
▁lance
▁kitchen
▁fen
▁fantas
▁domicil
▁crema
▁cest
▁bun
▁bret
▁accomp
▁Virgin
▁Strat
▁Stir
▁Stephen
▁Sector
▁Scho
▁SEM
▁Relat
▁Mum
▁Limited
▁Kof
▁Frances
▁Fall
▁DIS
▁Begin
▁Base
▁Answer
▁49.
▁391
▁264
▁239
▁104,
Ő
ñan
western
urdering
tomi
tete
tarti
syll
surgery
spell
rows
rides
reform
raig
pis
olum
number
mut
meva
merick
manca
lés
locking
left
lawn
lamat
investment
interviews
inch
igny
geometry
finir
ffiliation
endrick
cid
chromi
cad
batta
arson
anana
ampers
acri
Western
Verifica
Scientist
RING
QUALI
Po
OPA
LÓ
FBI
ELD
DIRECT
Comp
Coca
CMA
ADC
63%
400
356
136
035
-65
-5
%).
▁vibra
▁testament
▁sistem
▁rue
▁pus
▁notari
▁intern
▁hve
▁historie
▁ficti
▁fia
▁egal
▁cali
▁Terroris
▁Szy
▁Ronald
▁Plato
▁Palm
▁Organ
▁Janeiro
▁JAPAN
▁Industries
▁Ian
▁Haz
▁Gere
▁ET
▁Drive
▁Cair
▁CHI
▁BAT
▁Ath
▁Ask
▁Active
▁Ach
▁325
▁277
▁257
▁247
▁0,4
▁0,2
▁(8
udite
ttering
tropi
tiful
sorter
roller
rec
pali
orific
nitro
nicole
nding
nario
matrimonial
loqui
loqu
laden
ket
ionis
ifficult
guent
gnolo
furb
full
fette
ević
eriti
egg
echter
eb
droit
count
concurrent
cherry
bomb
blica
bini
bahn
bagb
arkness
UNCI
Thi
Sono
SHER
SDN
Presto
Population
Novembr
GIU
Extend
ETF
EA
Dette
DIL
Captain
AMERICAN
AIR
ACTION
:"
77.
7/9
671
6.000
400.000
360
27
158
▁temat
▁stort
▁solicit
▁soda
▁slav
▁pis
▁juridi
▁freelance
▁bem
▁aggreg
▁Virg
▁Szá
▁Strong
▁Score
▁Schal
▁SEG
▁Resid
▁PCT
▁NON
▁Koch
▁Kh
▁Keep
▁Impres
▁Gur
▁Gel
▁Espo
▁Analiz
▁Ampli
▁Address
▁660
▁543
▁50-
▁2.3
▁120,
Ò
zzet
zda
vidio
vello
stair
rosse
rooi
rogue
regul
readers
ormor
onate
needle
naria
matrimoniale
lant
kl
jumbo
informar
indoor
hle
gizi
gard
fon
exponen
esili
erici
encrypt
emble
diesel
cage
artista
WOOD
Vlast
Vatan
VERDE
Roberto
Quint
Medicina
MARS
FC
Amount
ADE
5/65
296
257
184
-22
▁viso
▁sociolog
▁sediment
▁sank
▁ré
▁recom
▁rass
▁ply
▁num
▁estimat
▁epo
▁corta
▁comprim
▁carto
▁botte
▁bend
▁arru
▁Years
▁Winter
▁Volks
▁Tien
▁Terre
▁Sloven
▁Sacr
▁SILV
▁SAR
▁Pure
▁OP
▁Design
▁Cit
▁Centr
▁Cave
▁Brothers
▁Bloom
▁95.
▁502
▁318
▁3.2
▁(2001
örg
ören
yal
won
total
tile
tani
smith
rst
reparation
reliminar
receiver
rails
pola
pea
ombud
natal
minor
koning
impel
ih
great
evral
embedded
editing
color
ayel
array
arelli
alize
VM
Utiliz
Tunisi
REAT
Pressure
PSC
Nikit
Internet
GHS
ENSE
DON
73%
587
249
219
143
141
028
-94
-72
-33
-07
-05
▁sau
▁ray
▁popula
▁poder
▁mold
▁manga
▁immuno
▁dota
▁distanc
▁cosm
▁bags
▁angel
▁Wald
▁UNE
▁Tro
▁Topol
▁Stal
▁Shal
▁Say
▁Professional
▁Lin
▁Invo
▁Gry
▁GR
▁Fed
▁FL
▁Doub
▁Casti
▁Casta
▁Carter
▁Caro
▁BON
▁580
▁42.
▁334
▁333
▁05
ánek
yot
ylvania
veden
utico
urcia
und
ummar
turismo
trainers
thieu
sturias
say
rving
rhag
ppa
path
parents
oza
opac
nizi
nina
minant
mailing
loom
lane
icrophone
huttle
hun
hia
gl
gene
formations
edding
diger
canvas
brew
basan
adu
XVIII
Par
PI
PERS
NAT
Lingua
Hiroshima
GI
Critic
Cameroon
Bremen
ALLE
81.
736
687
659
60.000
311
267
215
207
199
144
/11
-76
-55
(6)
▁villa
▁verni
▁ug
▁tua
▁transports
▁til
▁script
▁santa
▁refere
▁orange
▁mena
▁lice
▁leve
▁lake
▁hir
▁franchise
▁emo
▁cola
▁brands
▁barat
▁amo
▁Vit
▁Rub
▁Raja
▁Navy
▁Nation
▁NASA
▁Leo
▁Lago
▁Hol
▁Happ
▁FN
▁Els
▁Elm
▁Deep
▁Carmen
▁Bogo
▁Barak
▁332
▁319
▁313
▁1942
ération
zers
uwe
usí
ushroom
unu
toxic
termic
swimming
scopic
posters
pedo
passer
pagina
orpedo
optic
opin
molino
million
mella
mauri
lotter
italo
intura
inematografi
indemn
ind
iels
hopping
heuer
func
figure
erry
doms
disse
ctica
covi
cko
championship
bundle
abiti
Ur
SUE
Romania
RUP
Paul
NING
Malaga
LOCK
LNI
KR
IV
IONS
ILE
IDER
Hampton
Gdańsk
GES
Fiat
Documentation
Als
ACT
://
96
883
8/9
6.1.
31
270
075
/94
-34
▁Í
▁{
▁synchron
▁sunt
▁salg
▁salam
▁remis
▁pence
▁medal
▁islam
▁inund
▁hetero
▁german
▁eritr
▁divulg
▁diamond
▁comand
▁accu
▁Students
▁Shipping
▁Seat
▁Quinta
▁Province
▁Phil
▁Mau
▁LUC
▁Kö
▁INTERN
▁Google
▁Electronic
▁Door
▁Cass
▁324
▁1937
▁(7)
▁(10
yo
ye
ydd
uar
sigaret
sfeld
seen
sac
roeder
registry
rapist
priorit
pret
ovica
orbi
nil
modell
lanza
lante
kurt
interfac
iloga
illes
fritt
erra
duck
cyclo
cubi
cipi
chem
campo
axle
arabe
anei
YR
Uni
UU
UKI
NÁ
Medal
KIS
GGIO
ESTA
EPI
ENDA
Dakar
Bol
94)
7.000
679
58%
47%
41%
335
284
166
025
.06.19
-48
▁tres
▁traves
▁pond
▁micr
▁maca
▁lemon
▁feminist
▁bulb
▁albo
▁Ponte
▁Politi
▁Origin
▁Juris
▁Informa
▁Inform
▁HE
▁Fruit
▁Dup
▁Baku
▁86.
▁747
▁52.
▁470
▁460
▁292
▁2.2
▁2,7
yen
vagon
too
tomach
tega
taxe
tane
taker
taiwan
sunset
similar
silien
shoot
quences
polis
notat
mé
muz
mmagini
massa
lade
juga
iatric
hawk
gos
glomer
gap
fiam
européen
dagi
czak
culation
cula
crib
bia
belt
bei
aña
ales
Textile
PPP
NZ
Man
INGLE
HO
GUER
FIS
FID
CDM
Bianca
Anatoli
373
281
278
275
06
-2008
-150
▁temperat
▁spol
▁shri
▁infar
▁estab
▁dre
▁dilem
▁brom
▁beds
▁bai
▁Scien
▁SERVI
▁Pal
▁Mons
▁Meng
▁Mad
▁MOR
▁HU
▁Fla
▁Fernand
▁Determin
▁Das
▁Dane
▁BRU
▁Alde
▁Ah
▁Abr
▁530
▁480
▁44.
▁116,
Ţ
ø
çala
wns
ucra
serta
scar
research
oma
odore
matter
las
kowski
international
iggins
ică
icum
hiring
hese
eľ
except
eux
ember
dif
coded
cla
chille
chetti
chemistry
beba
analyst
aks
Upper
TSE
Sicilian
STRU
SE
QUES
Pas
Imp
IRON
INTA
ICO
Gerard
Delay
Conflict
Celtic
Bas
ATY
9/
4.5%
363
195
157
129
119
084
-79
-59
(!)
▁¿
▁vendi
▁reparti
▁pH
▁mast
▁download
▁damp
▁br
▁Train
▁Oscar
▁Mit
▁Microsoft
▁Marcel
▁Luxemburg
▁Kalam
▁Holm
▁Familie
▁Ethi
▁DUN
▁Brig
▁Bod
▁Avan
▁Argu
▁Alma
▁486
zarra
ytte
vre
ventual
utica
tov
sporto
sham
raws
race
puri
profile
posts
pling
plicativo
ovati
netic
motion
microscop
manna
lown
lean
ladder
kovich
istas
imber
forum
empia
daji
correg
collector
borro
boat
anonim
amely
VIS
Soon
Sangat
OVI
LIT
Isle
ILAN
Government
Erdoğan
ESI
CONTROL
Aziz
AMBI
9/9
39%
263
1956
188
067
/95
.05.19
-135
','
!».
▁teologi
▁tamil
▁locat
▁lesbian
▁laps
▁horn
▁filan
▁falle
▁effe
▁ceri
▁cala
▁Xin
▁Valde
▁Study
▁Solv
▁Salva
▁Pé
▁Parts
▁Pach
▁Moro
▁Manz
▁Lewis
▁Fox
▁FU
▁Cere
▁Borgo
▁Baz
▁Barth
▁BMW
▁45.
▁252
▁231
üp
wiel
uten
uszko
uburb
tè
tuary
thailand
talis
stranger
sthma
stalling
recipes
rappa
rais
projects
precia
pinch
pher
pawn
ordering
ntico
muto
moon
itária
iles
iek
gita
gendar
gante
gamba
galleries
gaard
fisch
falda
ettes
eros
erbe
enko
ddiction
collections
chroni
cartoon
capsula
branded
bracket
bouti
bilitat
assino
VELO
TUAL
Roma
ROK
One
Observer
OSSA
ONE
Malawi
MOND
MIL
IVERS
IRL
INSTITU
INHO
Herbert
Francia
Compliance
CAC
Bruno
Accept
ATTI
AIO
76)
357
347
04
▁vou
▁vic
▁swim
▁sapien
▁presse
▁pallo
▁maraton
▁hosting
▁gate
▁garb
▁freg
▁bay
▁Wood
▁Weis
▁VAR
▁Tell
▁PLAN
▁Original
▁Organiz
▁Neu
▁LO
▁Honey
▁Hava
▁HEL
▁Fire
▁Dog
▁Castill
▁Bast
▁BUD
▁Anthony
ν
ÉR
ymo
vion
vete
uzbek
uve
ugger
tì
trine
terroriste
string
sleeve
shots
rescu
rende
rdi
rasi
racket
quisito
quant
psicolog
placements
oxygen
oprano
notation
nest
naut
modules
mad
kiewicz
ional
incan
gure
gou
glove
gloria
fè
france
fox
european
eter
drops
donna
dili
derne
culte
cree
conduct
castle
bring
alti
aesthetic
VER
Tu
TTON
TSI
SS
RA
NEA
KIN
June
ICT
Graham
Estimate
ERS
But
9.30
752
54%
320
273
255
241
180
039
/8
%;
▁τι
▁topo
▁sanct
▁plast
▁peniten
▁octa
▁identific
▁glaci
▁fortifi
▁folk
▁bot
▁analis
▁activ
▁Tunis
▁Sonne
▁SMS
▁Pun
▁Olive
▁Od
▁OK
▁Lombard
▁KU
▁IBM
▁Gua
▁Giuli
▁Emilia
▁EG
▁Disc
▁Cove
▁Count
▁Bele
▁Asp
▁Applications
▁Abb
▁APR
▁71.
▁640
▁5.5
▁40-
▁307
▁221
▁117,
▁(1992
č
§§
vibration
veli
they
tenen
target
strate
sov
situ
salvador
roud
respondent
religi
profe
process
proc
piel
orrespondent
ocks
objecti
nucle
nnelli
nigh
neš
mutation
members
jiang
idst
icultura
heri
haven
grove
gner
fyn
erger
dri
dorm
divers
cowboy
commander
bromo
bhai
amour
agost
aduc
abo
abidi
Zagreb
Wie
VISION
TMA
Spain
Sheffield
SUR
STATI
RSI
PLA
Organic
Naz
NIS
ITI
Hurricane
HARMA
Gandhi
GT
EM
Buon
ARTI
ARIA
397
289
227
211
-93
-42
-160
%)
▁stemme
▁sensor
▁proba
▁neurologi
▁limon
▁lesbi
▁ki
▁jur
▁garage
▁eru
▁digit
▁cerebr
▁aldi
▁ace
▁Zo
▁Zel
▁Zag
▁Tiro
▁Sound
▁Rock
▁Reim
▁Provo
▁Patr
▁Mayo
▁Linde
▁Lille
▁Lead
▁HI
▁Fur
▁Friends
▁FIL
▁Disp
▁Colla
▁Ameri
▁323
▁2,6
▁1918
▁107,
▁10.30
voltage
veys
verre
vela
transport
teenager
svag
statue
sicilia
scoli
rubin
ronomi
rcito
producer
pool
piro
physics
ourgeois
ossible
nent
mige
midi
meta
maestro
live
knit
işin
inici
idrat
hydraulic
ferent
feci
falo
eus
entrop
eel
doctrina
cycling
culta
ciul
ccion
cara
bulletin
bival
biter
better
azi
arta
arism
argentina
antenne
ail
VIG
VEN
Responsabil
Raymond
Raya
RON
REN
NSS
LN
Intelligent
HOP
HALL
Fujitsu
Difference
ASS
ASCO
ANNA
84%
776
329
240/
